e </w>
n </w>
e r
s </w>
t </w>
e n</w>
c h
t h
, </w>
d </w>
i n
e n
u n
er </w>
a n
t i
. </w>
r </w>
th e</w>
a l
r e
i s
g </w>
o n</w>
i ch
d i
y </w>
o n
o r
o </w>
a r
i n</w>
e s
f </w>
e s</w>
r o
e l
i t
m </w>
d er</w>
s t
di e</w>
w i
a u
o f</w>
t o</w>
s i
e in
a t
an d</w>
i s</w>
a t</w>
o m
e i
l i
un d</w>
d a
o u
d en</w>
s ch
ich </w>
e d</w>
a </w>
z u
un g</w>
a ti
in g</w>
ch </w>
m en
g e
l </w>
a n</w>
l e
g en</w>
b e
r a
h a
d e
p o
al </w>
u r
o r</w>
o l
u s
t e</w>
v er
th at</w>
r i
ro p
t en</w>
om m
v e</w>
d er
u rop
i t</w>
t er
a b
a s</w>
p ro
e h
f ü
l e</w>
n o
zu </w>
E urop
w h
e c
l a
t s</w>
l y</w>
d en
men t</w>
is ch
ich t</w>
g e</w>
s p
s u
f f
ati on</w>
e m
k </w>
f or</w>
I </w>
T h
b e</w>
h r
ti on</w>
g en
is t</w>
fü r</w>
c on
a s
w er
c i
t z
a m
d e</w>
v on</w>
g i
o p
ein e</w>
po s
di es
a c
i l
n e
s s</w>
omm is
th </w>
e it
V er
- </w>
si on</w>
f or
ei t</w>
l ich
U n
th is</w>
b er</w>
ar e</w>
d es</w>
w e</w>
c e</w>
i e</w>
s e
v i
p or
l d</w>
au f</w>
b er
da s</w>
q u
t e
l o
da ss</w>
b en</w>
t r
g es
m a
s o</w>
w </w>
l ich</w>
ati on
wi r</w>
s e</w>
n icht</w>
no t</w>
un gen</w>
i m
s h
ou ld</w>
u l
m it</w>
si den
wi r
e d
e m</w>
er e</w>
isch en</w>
ha ve</w>
; </w>
g h
s t</w>
ommis sion</w>
t a
i on</w>
a h
wer den</w>
l l</w>
s en</w>
c o
ä n
ti on
e x
a f
un g
P ar
wi th</w>
e an</w>
i m</w>
a r</w>
R e
a g
w or
z i
en t
wh ich</w>
it y</w>
de m</w>
w e
el l
m en</w>
an d
Europ ean</w>
c om
b es
el </w>
i c
a pos
& apos
u m</w>
k e</w>
t er</w>
po li
S t
ti m
s o
wi ll</w>
al l</w>
au ch</w>
at e</w>
Th e</w>
e in</w>
s in
n en</w>
b y</w>
I n
siden t</w>
A n
i r
ung s
ß </w>
H er
d u
Un ion</w>
s ol
a ch
ei </w>
p re
u t</w>
r u
o t
a d
sch af
al s</w>
r ä
g r
i e
ü r
c k
ou r</w>
ha s</w>
p ar
m e
s er
B er
t ra
t u
h al
m o
m us
s ich</w>
en t</w>
au s
wir d</w>
I ch</w>
B e
0 0
E n
ü ber</w>
v or
a p
u m
ha ben</w>
w as</w>
ti c
w en
D ie</w>
p </w>
g t</w>
h at</w>
wi e</w>
E U
th er</w>
sin d</w>
Europ ä
i r</w>
s a
f in
ein er</w>
al l
M r</w>
P re
M it
m e</w>
( </w>
ur e</w>
) </w>
al so</w>
t en
m ö
ä r
g er
d ar
P ro
t ri
por t</w>
S ch
ou t</w>
s sen</w>
A r
at es</w>
p e
eh r</w>
t ed</w>
men ts</w>
z </w>
ein en</w>
A u
g an
A us
C ommission</w>
ch te</w>
i g
t s
o b
a ch</w>
r au
in ter
E r
li e
K ommission</w>
w ould</w>
: </w>
g el
st a
is e</w>
t o
isch e</w>
lich en</w>
c y</w>
at en</w>
co un
an t</w>
d s</w>
z w
i er
P rä
u t
da ß</w>
g o
V or
si e</w>
ch en</w>
Her r</w>
sh ould</w>
an n</w>
s ti
h e
ro m</w>
zu r</w>
a hr
ö n
u r</w>
u s</w>
&apos ;
al ly</w>
on e</w>
em ber</w>
f rom</w>
n ation
&apos; s</w>
ti ve</w>
es s</w>
es e</w>
0 </w>
der n</w>
e y</w>
I n</w>
ge h
e t
W e</w>
D i
A b
ou r
k en</w>
d is
b ei</w>
d ur
p er
m or
mus t</w>
EU </w>
s en
ab le</w>
En t
Pre sident</w>
v er</w>
m ü
Par la
m in
tion s</w>
E in
w el
k t</w>
o h
li a
k eit</w>
r it
es t
g re
d o
b ut</w>
W ir</w>
st r
l en</w>
ich ti
in g
is h
s am
&apos ;</w>
un d
por t
ou </w>
l u
t ei
au s</w>
be en</w>
b en
sch en</w>
qu ot
au f
k ön
dies e</w>
be it
or d
re c
h eit</w>
f i
er s</w>
S ie</w>
ch t</w>
e t</w>
it s</w>
si on
? </w>
t re
ation s</w>
& quot
&quot ;</w>
s el
st ell
b le
un s</w>
omm en</w>
poli ti
F ra
lia ment</w>
le g
Mit g
Europä ischen</w>
2 00
h i
lich e</w>
Par liament</w>
o un
r ü
ver y</w>
g ro
mü ssen</w>
c an</w>
for m
a m</w>
un ter
m ar
w eit
w a
w ur
ich t
mor e</w>
i hr
y ou</w>
en d</w>
g u
I t</w>
an der
er en</w>
h o
ö r
dies er</w>
i ti
g ra
t schaf
fü hr
e p
li c
M a
ic </w>
an ce</w>
h in
an y</w>
mö chte</w>
G e
n ah
u p</w>
ar y</w>
j e
v en</w>
l in
gh t</w>
el y</w>
w ar
M ember</w>
Mitg li
c omm
k ing</w>
ci al</w>
no ch</w>
l an
v or</w>
sp ec
f ol
er n</w>
re port</w>
tz t</w>
it ä
c es</w>
t ro
r in
in c
St ates</w>
tim m
E s</w>
ge m
d o</w>
er ung</w>
Prä sident</w>
eh en</w>
ec on
men t
p f
g er</w>
C oun
ei r</w>
Mitgli ed
v o
li ke</w>
Coun ci
con c
th eir</w>
Counci l</w>
f re
m it
n eh
si b
th ere</w>
! </w>
en s</w>
re s</w>
st en</w>
D as</w>
kön nen</w>
b u
e urop
es s
ü ber
pro pos
e ff
a k
f t</w>
su p
Mitglied sta
dies em</w>
st ru
di es</w>
F rau
st at
re g
o ther</w>
Europ e</w>
ein em</w>
be t
no w</w>
n ur</w>
im port
ch e</w>
tz en</w>
k ann</w>
europ ä
b t</w>
dur ch</w>
t ung</w>
du c
v es</w>
G es
Th is</w>
er t</w>
er n
th ese</w>
y st
se in</w>
n ach</w>
te t</w>
m u
pre s
ab er</w>
t ur
d es
al en</w>
Ber icht</w>
K on
ou s</w>
for e</w>
zu m</w>
au se</w>
v el
Parla ment</w>
ge b
sti tu
th ey</w>
t ing</w>
wen n</w>
w ä
s om
i el
u b
sol l
ü n
l ung</w>
eit en</w>
r an
o der</w>
ne u
m s</w>
ac c
Un ter
s ehr</w>
Mitgliedsta aten</w>
v ol
s on
z e
tri es</w>
as s
k on
gra m
gh </w>
f en</w>
b </w>
G r
l t</w>
p le
coun tries</w>
j ec
wor k</w>
m on
d ing</w>
f ac
er e
i d</w>
lie ß
wi ck
ag re
M en
ges ch
l ä
g n
r is
ich er
at ed</w>
h and
Re gi
al is
wh at</w>
a re
eh r
k ommen</w>
vel op
w ei
ff en</w>
C omm
v en
y e
ati ve</w>
b o
b el
st ü
5 </w>
ab out</w>
i h
e ment</w>
w ichti
tz ung</w>
o d</w>
s it
op le</w>
sp e
f a
g ung</w>
k l
at e
Z u
n e</w>
h er
t el
r ati
n ung</w>
tim e</w>
mar k
ne ed</w>
Z us
m er</w>
p la
F or
f er
f ra
i en</w>
c ause</w>
re as
m y</w>
en s
wh o</w>
B es
on der
un ser
Vor sch
nation al</w>
s ec
tr an
import ant</w>
po si
t or
m an</w>
/ </w>
de velop
ein es</w>
U m
A l
p ri
on ly</w>
pe ople</w>
th o
econ om
sch ließ
ne w</w>
p l
itä t</w>
d ung</w>
D er</w>
Frau </w>
b eit</w>
dies es</w>
poli cy</w>
mus s</w>
el t</w>
le ich
u te</w>
i </w>
po in
da </w>
re l
i f</w>
is su
1 </w>
u ation</w>
m ehr</w>
en ce</w>
op er
ahr en</w>
com e</w>
be cause</w>
ag a
em p
tic al</w>
pro c
il ity</w>
or t</w>
c le
ti gen</w>
neh men</w>
on s</w>
w n</w>
gh ts</w>
f o
fin an
da y</w>
wi th
un s
n o</w>
an n
wur de</w>
Europä ische</w>
2 </w>
1 9
re ch
P o
f ir
in n
qu es
i f
Europ a</w>
s yst
re gi
la r</w>
al le</w>
te e</w>
Ar beit
ed o
o ff
Her r
al e</w>
ol le
eh t</w>
v ed</w>
v ing</w>
pro ble
d ed</w>
g y</w>
su ch</w>
de c
B ür
Ent wick
ommis sion
bes onder
ver n
ie ve</w>
Zus am
schaf t</w>
e w</w>
en den</w>
st ri
hal b</w>
ä ch
Zusam men
for der
t n
de mo
ta ke</w>
nah men</w>
ere fore</w>
sib le</w>
mö g
su b
ish </w>
ch n
vi el
stell en</w>
In ter
% </w>
ti g</w>
c k</w>
an k</w>
sup port</w>
wa y</w>
r on
Au f
st än
il li
L e
ein g</w>
un ity</w>
ch an
ing s</w>
L än
f un
us s
j us
an s</w>
we ver</w>
wir k
t in
Pro ble
re ich
f u
ap p
a ge</w>
c </w>
sch e</w>
v is
ge gen</w>
par tic
er i
ihr e</w>
ber eit
g keit</w>
sam e</w>
ma ke</w>
R at</w>
di ff
p ub
in to</w>
bes t
t wor
de b
in s
ges t
w ür
we en</w>
l ar
gem ein
3 </w>
wir tschaf
bet ween</w>
tho se</w>
at ing</w>
f ä
hal ten</w>
ar d</w>
ri e
D e
tion en</w>
ti es</w>
Ma ß
zw ischen</w>
gel e
h um
u e</w>
k s</w>
p en
F in
Ü ber
hi er</w>
Ä n
er k
l au
ge w
w o</w>
den en</w>
m is
st e</w>
w ar</w>
it tee</w>
re sp
th ing</w>
Än der
t y</w>
europä ischen</w>
b ar
a d</w>
k te</w>
ha be</w>
di rec
is t
dies en</w>
ä m
7 </w>
m i
am p
ar ly</w>
ar i
gi bt</w>
resp on
pro gram
ri ghts</w>
s s
politi k</w>
un der
l än
8 </w>
som e</w>
wh en</w>
th erefore</w>
b eing</w>
a si
sch ei
l and</w>
ge ben</w>
com p
Ber ich
S o
pro duc
h e</w>
tra g</w>
H au
es t</w>
C ommission
6 </w>
wer e</w>
tr y</w>
th em</w>
Re ch
poli tical</w>
men d
m an
w är
en g
ge t</w>
m any</w>
W ir
a ff
S ta
G em
ar s</w>
en er
b ei
x t</w>
c re
z ei
ol o
u tz
ungs an
de ut
ma de</w>
econom ic</w>
en z
gro ß
as t</w>
da mit</w>
ti v
k eine</w>
on g</w>
uns ere</w>
Fra ge</w>
m at
ein i
m ich</w>
at s
b rau
re ad
M in
iti es</w>
sol u
4 </w>
t or</w>
c an
k tion</w>
th an</w>
edo ch</w>
9 </w>
ommis s
or der</w>
ü ck
gan is
Commission er</w>
Ber e
W e
Gem ein
ra p
th in
f e</w>
w oh
K ommiss
h el
p a
bel ieve</w>
lic </w>
n u
un kt</w>
ar beit
mo st</w>
un ter</w>
c ri
ri f
j edoch</w>
K o
A </w>
h er</w>
Po li
son dern</w>
g ab
Gr und
as e</w>
for m</w>
R icht
pro t
la g</w>
us s</w>
de t</w>
ation en</w>
d an
re d</w>
tr ä
sa y</w>
ro u
am en</w>
h ere</w>
Herr n</w>
in st</w>
c ul
we ise</w>
cle ar</w>
geh t</w>
c c
19 9
y s</w>
it e</w>
Maß nahmen</w>
Prä siden
ander en</w>
ier ung</w>
propos al</w>
k rati
aga inst</w>
ti z
wi e
en de</w>
ß er
el e
conc ern
fac t</w>
wä hr
gen t
deb ate</w>
h ar
i el</w>
sh al
ab l
ti ge</w>
he ute</w>
ell en</w>
Aus sch
soll te</w>
unter stü
soll ten</w>
S tr
c er
H o
J ah
p ra
fir st</w>
p p
h eit
lo w
C on
in form
m p
ment al</w>
n at
y ing</w>
d ra
h ä
jus t</w>
ge gen
so cial</w>
d ann</w>
a st
sch ie
s at
ci tiz
el le</w>
st e
prot ec
M ar
en tr
lich keit</w>
mark et</w>
in stitu
on en</w>
pub lic</w>
sch </w>
so wie</w>
au </w>
inc lu
dec is
eff ec
f ul
poin t</w>
Th at</w>
geh en</w>
ze u
le v
thin k</w>
S icher
g es</w>
sch en
a su
pos sible</w>
is l
bereit s</w>
Comm ittee</w>
n ec
con si
develop ment</w>
te chn
oper ation</w>
sa gen</w>
2 0
h an
bu d
l ei
sit uation</w>
Men schen</w>
f all
woh l</w>
issu e</w>
inc reas
t ly</w>
le tz
K olle
s timm
ad op
d re
g s</w>
wh ere</w>
ö l
Fin an
tran sp
im mer</w>
pro vi
Bes ch
vi ew</w>
cer ta
Wir tschaf
ye ars</w>
st an
us e</w>
is sen</w>
Entwick lung</w>
em ber
ur r
Parla ments</w>
besonder e</w>
ri ght</w>
f e
h nen</w>
en n</w>
al i
f ut
F re
hum an</w>
ou gh</w>
coun try</w>
al le
t el</w>
is se</w>
con tin
so zi
in nen</w>
op e</w>
wei l</w>
den n</w>
ä f
Hau shal
g leich
me asu
fut ure</w>
st and
ff ent
b ie
read y</w>
t ure</w>
vi ron
syst em</w>
wur den</w>
b il
b in</w>
ques tion</w>
Änder ungsan
ha d</w>
re su
o ver</w>
can not</w>
w ol
rü ck
go vern
m al</w>
solu tion</w>
u p
citiz ens</w>
S it
ci p
m eine</w>
do es</w>
t lichen</w>
an twor
c our
reg ul
w ant</w>
b asi
par t</w>
nation alen</w>
e ven</w>
measu res</w>
A s</w>
b i
R ah
Vorsch lag</w>
dar auf</w>
f ahren</w>
wel l</w>
ar beit</w>
ap pro
vo m</w>
unser er</w>
stru c
t wo</w>
lo b
lin ie</w>
G ro
leg isl
c ould</w>
ge ment</w>
a mend
EU -
al ity</w>
gi e</w>
ord nung</w>
M r
da für</w>
bes ch
com pe
ob </w>
l ungen</w>
bes ser
wen di
b r
x </w>
s or
en n
p rin
gan z</w>
sa id</w>
D em
de u
agre ement</w>
Men schen
ent ly</w>
ä u
da m</w>
demo c
to day</w>
gen en</w>
Ver ein
kl är
vo te</w>
e tz
posi tion</w>
str ate
n ach
th en</w>
p ec
st ar
th rou
im ple
lo y
ter stat
Poli ti
weit er
sh i
o wn</w>
nah me</w>
u lar</w>
in e</w>
je tzt</w>
en z</w>
is p
tro l
dis c
be g
se tzen</w>
al ready</w>
is ten</w>
c urr
Th em
Bür ger</w>
k eiten</w>
se e</w>
por te
di c
lo w</w>
re spec
gen ommen</w>
mu ch</w>
T re
Fra ktion</w>
ex c
et y</w>
i es</w>
ye ar</w>
ember s</w>
go od</w>
stän di
ho w</w>
da zu</w>
W enn</w>
Kolle gen</w>
ar ds</w>
to o</w>
en ti
k un
jec t</w>
M e
ta ken</w>
En er
with in</w>
m ir</w>
f as
or ity</w>
f est
st and</w>
s icher
O r
con su
gen er
führ en</w>
O </w>
ter s</w>
n um
Mr s</w>
ihr er</w>
sti ll</w>
gest ell
m er
qu i
R </w>
en viron
finan cial</w>
d el
e k
sp ra
per i
re chen</w>
b le</w>
in v
rap porte
leg al</w>
w er</w>
ö s
g lich</w>
tur al</w>
sel b
mit tel
w es
be wer
Th ere</w>
t lich</w>
diff er
v ot
fu l</w>
se tzung</w>
k now</w>
Ho wever</w>
ne ed
neu en</w>
b rin
Berich terstat
it ed</w>
du stri
partic ular</w>
comm on</w>
v al
acc ep
pla ce</w>
ma chen</w>
bo th</w>
ins besondere</w>
Dem o
wür de</w>
tion al</w>
führ t</w>
sion s</w>
t es</w>
Kommiss ar</w>
ac t</w>
Län der</w>
ti n</w>
at er</w>
la ge</w>
Comm unity</w>
wel t
e ver
inter national</w>
un der</w>
Ar beit</w>
l ungs
ti g
lev el</w>
co operation</w>
ou s
ser vi
cour se</w>
nec ess
Rech ts
at or
th re
Pro gram
ur ity</w>
h ope</w>
L is
at te</w>
ens ure</w>
s ich
is m</w>
h än
ze ich
ou se</w>
z ah
S </w>
dur ch
y our</w>
ac tion</w>
Zusammen arbeit</w>
wor ld</w>
mu ß</w>
r or
lich er</w>
so ci
be gr
t al
emp loy
ter n</w>
be d
I hnen</w>
o f
t liche</w>
si gn
s tim
wichti g</w>
ti eren</w>
gr ation</w>
f ri
im pro
a ir
em s</w>
der ung</w>
do ch</w>
kön n
or ganis
la ssen</w>
k re
c ase</w>
n al</w>
ti al</w>
proble m</w>
Unter stü
sat z</w>
st är
k om
re chte</w>
Di ese</w>
politi schen</w>
Arbeit s
alle m</w>
are a</w>
ar an
c lo
wol len</w>
re s
h is</w>
p ut</w>
M ein
Bere ich</w>
E </w>
M on
T ei
en en</w>
ab ility</w>
au th
Z eit</w>
h en</w>
pres ent
H and
ich ts</w>
d ly</w>
de m
ö ß
el n</w>
i ci
som e
ag t</w>
Pre siden
D es
re it
wor den</w>
Richt linie</w>
all en</w>
h in</w>
B eit
om en</w>
as ed</w>
in iti
g lau
Jah r</w>
eini ge</w>
ord in
es sen
e tzt</w>
ord ne
wh y</w>
proc ess</w>
Unterstü tzung</w>
or ities</w>
m us</w>
st ehen</w>
b is</w>
w al
utz </w>
la st</w>
ge ordne
min is
f le
isch er</w>
in ten
k tion
z en</w>
rapporte ur</w>
oh ne</w>
al o
inform ation</w>
ven tion</w>
ma j
ci es</w>
at y</w>
neu e</w>
ur o</w>
te xt</w>
ür lich</w>
ö ffent
me ans</w>
s eine</w>
ener gy</w>
be k
h ol
hal f</w>
c ed</w>
heit s
Rah men</w>
vor sch
i a</w>
ob jec
ten s</w>
ander e</w>
amp le</w>
d ru
M ö
b ar</w>
ma y</w>
trä ge</w>
gestell t</w>
num ber</w>
gent le
if ic
is en</w>
ex ample</w>
In form
in vol
z un
as k</w>
ä tz
ier en</w>
necess ary</w>
J ahren</w>
i ons</w>
T a
throu gh</w>
gentle men</w>
Bür ger
reich en</w>
G er
ä h
with out</w>
v öl
Mö g
s af
P </w>
proble ms</w>
al th</w>
Q u
h ö
g lob
tri bu
l er</w>
go ti
P er
H ouse</w>
Län dern</w>
sp rechen</w>
ho wever</w>
en d
I f</w>
wär e</w>
ul es</w>
z ep
ed u
ti k
Di es</w>
tu n</w>
ge t
c al</w>
es en</w>
Ent schei
lo o
direc tive</w>
i li
compe ti
si ve</w>
L and</w>
ß en</w>
a ffen</w>
el ec
N o
L i
t bewer
s icht</w>
Re cht</w>
consi der
zi eh
fall s</w>
la gen</w>
ne goti
ach e</w>
s ichti
ul arly</w>
ac k
program me</w>
se t</w>
e ben
fin den</w>
no t
ne t</w>
k omm
brau ch
ass ung</w>
fa v
ou ra
z ü
bud get</w>
i ce</w>
me di
Ab geordne
Ma dam</w>
Proble m</w>
B eh
shi p</w>
p unkt</w>
S p
op port
e f
gi ve</w>
el l</w>
partic ularly</w>
f ur
N ach
ß t</w>
b in
Ent schließ
m einer</w>
ier t</w>
at ely</w>
äm pf
pres ent</w>
I m</w>
ff t</w>
Z iel
gen heit</w>
gre at</w>
sch on</w>
stimm ung</w>
sel f</w>
N amen</w>
k o
est abl
sec urity</w>
issu es</w>
Präsiden tin</w>
protec tion</w>
brin gen</w>
Str ate
be fore</w>
st re
illi on</w>
th ough</w>
kun ft</w>
ma in
i gen</w>
e ments</w>
comm it
reg ard</w>
ün f
str eng
l ü
ein mal</w>
20 1
ri ti
el d</w>
r ise</w>
B ed
c ar
ch ten</w>
h eiten</w>
H in
Unter nehmen</w>
are as</w>
gi ven</w>
chan ge</w>
b al
re solution</w>
j o
ma cht</w>
Min is
f ahr
Sta aten</w>
tic </w>
sam en</w>
zw ei</w>
respec t</w>
sib ility</w>
ä hr
tor s</w>
F all</w>
tri fft</w>
Them a</w>
p lan
Tre aty</w>
la w</w>
selb st</w>
f t
I hr
ti ert</w>
Sicher heit</w>
wh e
mat ter</w>
employ ment</w>
ges etzt</w>
for t
spra che</w>
sol l</w>
europä ische</w>
2 0</w>
mög lich</w>
P ri
W ie</w>
gr öß
w omen</w>
li m
in te
vi el</w>
J ahr
Be deut
ff e</w>
stell t</w>
viel e</w>
ges am
i l</w>
re qui
Fra gen</w>
Bedeut ung</w>
zu sam
por ts</w>
dar über</w>
w s</w>
Ener gi
00 </w>
Gro up</w>
ic ul
Politi k</w>
f ar</w>
et was</w>
bes timm
hi gh
diff icul
lo ssen</w>
D o
us ed</w>
E ben
R ates</w>
ha p
Mein ung</w>
ti ce</w>
ig er</w>
whe ther</w>
L age</w>
ri cul
uss es</w>
k ey</w>
not wendi
k ed</w>
rit t</w>
k ten</w>
nu n</w>
Ver brauch
me work</w>
amend ments</w>
wa ys</w>
fä l
sec tor</w>
la dies</w>
k ehr
aga in</w>
com ple
L ös
se qu
han g</w>
ihr en</w>
M embers</w>
con di
D is
s c
ge führt</w>
c all
il fe</w>
best eht</w>
W et
rif ten</w>
k u
g o</w>
w issen</w>
geb n
c ris
zu g</w>
op in
en cy</w>
Un ited</w>
Ges ch
ein f
ser i
Inter es
Z iel</w>
th ank</w>
certa in</w>
W as</w>
ac coun
ti ves</w>
be deu
stell ung</w>
unterstü tzen</w>
z e</w>
sa m</w>
k es</w>
regi on
be half</w>
in de
d r
s ehen</w>
basi s</w>
su cc
conc lu
our ces</w>
l ess</w>
inter es
ger e
ro le</w>
sin ce</w>
fur ther</w>
s er</w>
dar f</w>
u es</w>
V ol
St ra
hand elt</w>
e qu
f an
führ ung</w>
wie der</w>
S o</w>
T ran
go ing</w>
propos als</w>
Regi erung</w>
K ol
Proble me</w>
begr ü
Aus sprache</w>
ges agt</w>
Ge bie
z el
da her</w>
w ach
n i
t sch
si mp
pf lich
ter ms</w>
finan zi
li dar
Sit uation</w>
ein zu
Wet tbewer
ent schei
aus sch
tra de</w>
agre e</w>
lic k</w>
ation s
m es</w>
pra c
gen den</w>
rü n
on -
l es</w>
ou t
Di en
s ätz
servi ces</w>
u ro
Frau en</w>
ne xt</w>
pro gre
decis ion</w>
Zu kunft</w>
ful ly</w>
s ed</w>
W or
fav our</w>
tre ten</w>
a v
ol le</w>
ich en</w>
wirk lich</w>
- 0
K om
d one</w>
lä ge</w>
k ti
war ds</w>
p rop
F isch
sp ar
a de</w>
nat ürlich</w>
r ules</w>
er forder
ta in
a id</w>
fi ed</w>
M illi
n am
c u
le gen</w>
ber e
L and
an ges
Mit tel</w>
ma in</w>
is ed</w>
Zusammen hang</w>
tei li
g le
differ ent</w>
ab il
war d</w>
c ap
de fin
u d
i de
Wirtschaf ts
adop ted</w>
E C
h ei
Di es
ver schie
R olle</w>
T </w>
F ol
K in
geh ör
he alth</w>
f ör
Haushal ts
re co
legisl ation</w>
al ität</w>
Des halb</w>
at ten
at t
g ar</w>
m il
Finan z
zw ar</w>
bet ter</w>
r icht
tra gen</w>
en th
I r
S yst
c olle
gele gt</w>
ig n
ous ly</w>
s econ
r en
Ver hand
hel p</w>
W hat</w>
t -
St and
I s
r ichti
un i
Ab stimmung</w>
g ten</w>
äm lich</w>
ti gung</w>
C hin
politi sche</w>
gan g</w>
glau be</w>
aus ge
M o
imple ment
Er gebn
st eht</w>
n ämlich</w>
need s</w>
o ver
W i
te u
gr und
ic ation</w>
we isen</w>
ar ch</w>
and s</w>
Z eit
in di
c or
letz ten</w>
tran s
z eit</w>
m ers</w>
tei l</w>
fra mework</w>
tu r</w>
ic al</w>
ben s
en ces</w>
ex is
Re gel
cris is</w>
par tn
b s
al er</w>
Kol leg
is ch</w>
im p
ges timm
ent sp
In stitu
ma king</w>
Demo krati
W elt</w>
p rä
contin ue</w>
B ut</w>
l it
D ur
Mit tel
is mus</w>
fol low
So zi
Pro du
ver s
Regi er
h </w>
ac k</w>
a gement</w>
opin ion</w>
b lei
ul ation</w>
V iel
k tur
G re
af ter</w>
th er
ever y
Be isp
B el
p rü
institu tions</w>
d ings</w>
gen d</w>
dru ck</w>
t om
Dis k
b it
T ur
con tribu
sel ves</w>
olo gi
wh ol
s m
unser en</w>
G o
s einer</w>
De b
pro m
h n
w ish</w>
icht lich</w>
y p
N </w>
f ish
k ra
a gen
der s</w>
B ar
gestimm t</w>
men te</w>
ag ricul
gro up</w>
str y</w>
prin cip
st er</w>
k ur
ig keit</w>
F or</w>
posi tive</w>
e -
d ür
Ar tik
ra cy</w>
concern ed</w>
sh o
sch n
progre ss</w>
h ör
l on
vis ion</w>
vot ed</w>
ge währ
lie gt</w>
d lich</w>
fer ence</w>
w eit</w>
stim men</w>
b ur
gr at
G leich
st o
Besch äf
i g</w>
ie der
demo krati
ück sichti
gr und</w>
be trifft</w>
A m
fo re
k an
ti gt</w>
g ing</w>
b an
E uro
dan ken</w>
l at
Ges und
j en
p h
In iti
m erk
ä l
arbeit en</w>
rati c</w>
St ate</w>
hä t
au en</w>
j a</w>
g ed</w>
da von</w>
p as
rit te</w>
l l
n ing</w>
ex tre
t able</w>
resu lt</w>
Ver antwor
ent wick
lin e</w>
l ong</w>
al ten</w>
L </w>
A gen
no v
E x
der t</w>
whol e</w>
wen dung</w>
r än
th ir
Um welt
for ward</w>
Menschen rechte</w>
s ure</w>
k er</w>
ati ves</w>
zu rück
ig n</w>
f ew</w>
on ds</w>
ing ungen</w>
We ise</w>
to wards</w>
ach ie
W ah
n äch
k tionen</w>
wel come</w>
wor king</w>
könn te</w>
gab en</w>
N or
l ed</w>
D ar
at s</w>
geb ra
x i
b lick</w>
at ten</w>
ih r</w>
some thing</w>
fun da
su ff
ch il
ac e</w>
it al</w>
gab e</w>
00 0</w>
appro ach</w>
ge ther</w>
vol l
st er
ru pp
der en</w>
i zi
gen de</w>
du stry</w>
U S
g s
F ü
gu aran
condi tions</w>
l uss</w>
Gemein schaft</w>
Europ as</w>
l ab
b us
P unkt</w>
Eben e</w>
s eit
de f
spec if
es sion</w>
hän gi
Herr en</w>
p ur
dar an</w>
le icht</w>
Ges etz
ed ure</w>
in tro
g ri
sch i
thre e</w>
us sion</w>
pec i
B ei
gro w
er te</w>
Artik el</w>
gegen über</w>
res ources</w>
ho ffe</w>
A ber</w>
princip le</w>
itä ten</w>
ati ven</w>
sch ein
transp ar
enz en</w>
Tei l</w>
s y
du ce</w>
ß en
s si
Sch utz</w>
ess es</w>
kom men
re se
T er
comm un
di d</w>
200 0</w>
b ased</w>
establ ish
an ge
For sch
el s</w>
i le</w>
inclu ding</w>
M i
s ab
sp rä
to gether</w>
per son
e ben</w>
an zu
curr ent</w>
war en</w>
v ent</w>
währ end</w>
t ungen</w>
sub ject</w>
sh all</w>
For tsch
st ate</w>
groß e</w>
Kon trol
den ce</w>
import ance</w>
specif ic</w>
pro chen</w>
Un d</w>
g ut</w>
v ement</w>
propos ed</w>
Berichterstat ter</w>
opport unity</w>
dre i</w>
da bei</w>
eit e</w>
le isten</w>
transp ort</w>
k no
do wn</w>
air s</w>
Vorsch läge</w>
We g</w>
k ünf
re ally</w>
re duc
regul ation</w>
is ti
vor gesch
M ehr
au ßer
or ts</w>
E uro</w>
D amen</w>
Jahr e</w>
w ün
h au
m illion</w>
k ein</w>
S in
poli cies</w>
auth orities</w>
brau chen</w>
provi de</w>
Sozi al
An sicht</w>
O n</w>
es peci
schaf ts
zusam men
dur ing</w>
increas e</w>
L u
Presiden cy</w>
B em
her vor
cri min
as es</w>
especi ally</w>
ta king</w>
inn en
e k</w>
so wohl</w>
S e
e very</w>
Mög lichkeit</w>
all er</w>
zi ehen</w>
k ehr</w>
Str u
Lös ung</w>
f el
we gen</w>
t ungs
si de</w>
wor k
Deb atte</w>
Strate gie</w>
ann t</w>
Re chte</w>
gener al</w>
in stru
EU R</w>
Fre i
Kolleg innen</w>
An gele
dar in</w>
schließ lich</w>
rop ri
strate gy</w>
reco gn
in dustry</w>
z o
produc ts</w>
re i
G rün
G i
certa in
er ten</w>
l en
negoti ations</w>
v ari
en nen</w>
app ropri
W el
accoun t</w>
vi ol
zun eh
resu l
c oura
respon sibility</w>
besonder s</w>
weit er</w>
N u
ad di
sch affen</w>
s ur
fin d</w>
cle arly</w>
zi erung</w>
R us
s eit</w>
völ k
environ mental</w>
ür k
den t</w>
Z ah
Entwick lungs
J u
er halten</w>
ih nen</w>
st s</w>
gre ater</w>
saf ety</w>
inter nationalen</w>
an other</w>
er dings</w>
n er</w>
B il
be come</w>
inn er
le a
tz e</w>
Par tn
h il
A fri
it self</w>
Um setzung</w>
gen u
Änderungsan träge</w>
k lar</w>
qu ite</w>
o cc
ter m</w>
tro l</w>
T ats
s k
tr u
secon d</w>
h and</w>
com ing</w>
lich keiten</w>
Beisp iel</w>
Chin a</w>
f ar
v es
er zi
effec tive</w>
w an
rese arch</w>
Ar t</w>
seri ous</w>
d ungen</w>
a k</w>
le ast</w>
ex p
ra ther</w>
komm t</w>
Änderungsan trag</w>
vi du
ri min
gu e</w>
l icht</w>
ter ror
ben ef
gemein samen</w>
g le</w>
Le bens
er fol
Be zug</w>
gre i
wes ent
bus in
Abgeordne ten</w>
Au ch</w>
Ab kommen</w>
Rus si
re cht</w>
sta in
ger n</w>
groß en</w>
D rit
U </w>
ab hängi
k ämpf
Th ey</w>
ell schaft</w>
gebra cht</w>
h r</w>
stand ards</w>
c all</w>
it är
for ce</w>
un de</w>
edo m</w>
fra gen</w>
aff ung</w>
dür fen</w>
ä ß
re present
gle ich</w>
N e
wirtschaf tlichen</w>
wel che</w>
democ ratic</w>
ac tu
ver besser
or i
Go vern
comp an
N o</w>
pro mis
B innen
c ing</w>
tei lung</w>
ti gkeit</w>
wh ile</w>
des sen</w>
democ racy</w>
hum an
regi ons</w>
e ts</w>
di en
de al</w>
b ro
sozi alen</w>
ver b
al y
al ways</w>
k t
b ri
alis ierung</w>
entsp rech
Verhand lungen</w>
W ähr
In stru
indi vidu
fre e</w>
zieh ungen</w>
reas on</w>
re al</w>
ur al</w>
am ili
äch st</w>
difficul t</w>
ein zel
Demokrati e</w>
Th ese</w>
Hin blick</w>
B o
Ein e</w>
S teu
b on</w>
ber ücksichti
k ung</w>
acc ess</w>
ap pe
on ce</w>
lie gen</w>
con f
atten tion</w>
g ation</w>
essen tial</w>
Milli onen</w>
funda mental</w>
E in</w>
R at
ak zep
a il
Ver ordnung</w>
m ul
mar kt</w>
weiter hin</w>
Er klär
t ä
Ver trag</w>
th ings</w>
den ken</w>
wirtschaf t</w>
r ich
k a</w>
interes ts</w>
pri v
syst ems</w>
f all</w>
s weise</w>
th em
ach ieve</w>
h is
t ent</w>
regi on</w>
Ziel e</w>
An twor
fü r
fre edom</w>
eini gen</w>
a w
fra ge</w>
des halb</w>
soci ety</w>
be tre
wie der
Aussch usses</w>
implement ation</w>
ati s
A spe
ab sol
qu ality</w>
maj or</w>
c ation</w>
o th
Verein ig
O ff
F ör
T o
k e
R om
inner halb</w>
D ah
poin ts</w>
ver su
an im
Gr und</w>
den ke</w>
sm all</w>
nation ale</w>
kon kre
me et
sign ific
tschaf t</w>
H e
Arbeit sp
5 0</w>
forder t</w>
d at
W o
F un
Entschließ ung</w>
inter nal</w>
Wirtschaf t</w>
Dah er</w>
H ilfe</w>
d y</w>
1 0</w>
E -
spe zi
com men
c tion</w>
tiv </w>
le ist
an s
jo in
Ver fahren</w>
thir d</w>
gemein same</w>
govern ment</w>
ma ß
ut es</w>
In dustri
econom y</w>
Is ra
T O</w>
aus zu
wichti ge</w>
bu il
in dustri
sol len</w>
Ihr e</w>
e ach</w>
er sten</w>
um fas
eff orts</w>
mon ey</w>
de ci
schaf ten</w>
er reichen</w>
ex pres
loo k</w>
re form</w>
Beh ör
ab </w>
b ack</w>
Verantwor tung</w>
vari ous</w>
ter n
t sp
gesch lossen</w>
rec ei
his tor
d lichen</w>
N ot
Institu tionen</w>
Ge gen
pre c
ver stän
wirk ungen</w>
wer de</w>
A t</w>
li ber
f te</w>
Fisch er
all es</w>
k in
ger ade</w>
environ ment</w>
tei l
D a
a spec
deut lich</w>
f al
ati v
d ungs
ol d</w>
w rit
com es</w>
sta at
G ener
wor ds</w>
comm ittee</w>
consi der</w>
ad dre
l ing</w>
y o
Ver besser
En de</w>
er mög
ta in</w>
fre i
y et</w>
Regi onen</w>
all gem
ex pec
pl es</w>
Grund lage</w>
Pro je
ir e</w>
zei gt</w>
su m
Dien st
par ti
be isp
N at
pro mo
Sicher heits
d rück
app lic
Pro z
fun ds</w>
zei tig</w>
G en
grei fen</w>
colle ag
ge macht</w>
inv est
Aussch uss</w>
en lar
proc edure</w>
zü glich</w>
Be völk
is sen
A ff
Or ganis
L an
g a
o se</w>
den ti
P al
ad v
per s
wi esen</w>
T ex
po p
R es
n er
Per son
beisp iel
th s</w>
re icht</w>
notwendi g</w>
F ir
ß e</w>
R ück
al low</w>
m äß
sol che</w>
un den</w>
u al</w>
zu stellen</w>
stri c
op en
ex ten
invol ved</w>
äu ßer
s ei
ver sch
P e
F rie
initi ative</w>
re m</w>
dr en</w>
n or
ges ehen</w>
s se</w>
M it</w>
an ti
tei len</w>
ha ving</w>
Tats ache</w>
bei den</w>
con trol</w>
er klär
A mend
hau p
competi tion</w>
bei m</w>
Me di
weit ere</w>
ab ly</w>
su stain
grow th</w>
z ung</w>
Mitg lie
n ei
mit tel</w>
län dern</w>
fü l
e th
gi lt</w>
fer enz</w>
tic le</w>
concern s</w>
ch all
m ehr
alo gue</w>
Aus wirkungen</w>
p ris
po wer</w>
3 0</w>
minis tr
Li ber
Govern ment</w>
grat ul
t ar
are d</w>
wür den</w>
ah r</w>
min d</w>
in f
tion ed</w>
Aff airs</w>
agre ements</w>
compan ies</w>
sp iel
program mes</w>
seit s</w>
at er
lar ge</w>
er wä
ch t
Ver f
b ility</w>
sin gle</w>
US A</w>
pl an</w>
aff ec
ge geben</w>
u ß</w>
eff ici
er st</w>
ste p</w>
gr an
J us
bes t</w>
chil dren</w>
Au ßen
alis ation</w>
äch lich</w>
hi gh</w>
ful l</w>
con gratul
li g</w>
reg ar
acc ord
in dem</w>
fin det</w>
pre ss</w>
R i
f er</w>
E ra
re fer
v il
le ben</w>
n ichts</w>
b our
gr enz
st ra
Lis sab
Lis bon</w>
w in
d ate</w>
objec tives</w>
y -
S u
tim es</w>
ver fahren</w>
emp ha
i ge</w>
spec i
work ers</w>
st ly</w>
be w
fä h
Ver tra
Aus druck</w>
fort un
ser v
b ung</w>
li eren</w>
l an</w>
St ell
unterstü tzt</w>
inter est</w>
glob al</w>
gen e</w>
en coura
und ing</w>
Inform ationen</w>
d ou
v e
maj ority</w>
wen iger</w>
Syst em</w>
sa ge</w>
1 5</w>
f li
Ver pflich
re gel
N ach</w>
amend ment</w>
t ation</w>
in s</w>
intro duc
fo od</w>
un kte</w>
gro up
sch er</w>
sch wi
b re
extre m
hal te</w>
uns er</w>
con stitu
ein zi
eben falls</w>
h oh
dar um</w>
S ek
J un
k einen</w>
man agement</w>
aw are</w>
er seits</w>
Kommiss ar
form s</w>
200 1</w>
av ail
produc tion</w>
ex peri
T ürk
i tion</w>
certain ly</w>
an gem
of ten</w>
Au ff
decis ions</w>
follow ing</w>
m t</w>
re ques
beispiel sweise</w>
ob li
ha pp
Entschei dung</w>
viel en</w>
jec ts</w>
Rat sprä
simp ly</w>
st ens</w>
pe ace</w>
ver fol
weit erung</w>
Arbeit neh
lo s</w>
agricul tural</w>
vorsch riften</w>
gegen wär
öffent lichen</w>
Um wel
För derung</w>
Ter ror
Interes se</w>
R ei
ei genen</w>
rec ent</w>
vol l</w>
s ere</w>
Tur key</w>
om ent</w>
Behör den</w>
m ati
D ank</w>
schi ed
Türk ei</w>
A k
Be ziehungen</w>
h t</w>
t le</w>
Regi on</w>
h on
verschie denen</w>
sch rif
Al s</w>
s einen</w>
Dur ch
B al
men tioned</w>
extrem ely</w>
ter in</w>
al low
po ten
ra g</w>
gu te</w>
br ing</w>
group s</w>
Wettbewer bs
M il
mit t
h atte</w>
der ungen</w>
conc ern</w>
rel ations</w>
Di alo
ad ministr
viel leicht</w>
T ra
Ver tre
appropri ate</w>
hin aus</w>
Kommissar in</w>
Au s</w>
Re g
hap s</w>
Vereinig ten</w>
zw ei
olo g
di alogue</w>
region al</w>
bedeu tet</w>
m pf
st eh
hal tung</w>
tur n</w>
i an</w>
la ck</w>
co ordin
gen au</w>
Al l
Not wendi
gehör t</w>
ag o</w>
call ed</w>
accep t</w>
ch o
fä hr
stat t</w>
E r</w>
ch tens</w>
pos e</w>
parti cip
Er weiterung</w>
s ichtlich</w>
Pro to
ab o
cre ate</w>
St abil
pro du
ob s</w>
Sch affung</w>
ves ti
pro f
F lu
Era chtens</w>
g sten</w>
fi eld</w>
is tet</w>
k ol
be tra
Minis ter</w>
Verbrauch er</w>
or y</w>
l ück
w o
me chan
ation al</w>
t ats
Antwor t</w>
respon sible</w>
con text</w>
in ing</w>
ci vi
P or
R u
actu ally</w>
i ly</w>
is ation</w>
U r
C O
sch ä
bes ser</w>
mi ght</w>
ques tions</w>
se ver
f ris
I ra
Program m</w>
develop ing</w>
st ates</w>
peri od</w>
f ung</w>
syst em
mon it
li fe</w>
li es</w>
b or
en ter
prom ise</w>
avail able</w>
pos ed</w>
ch ar
C har
objec tive</w>
le t</w>
r y</w>
i er</w>
in es</w>
Z i
re commen
con s
ris k</w>
f onds</w>
Ar ticle</w>
an u
enlar gement</w>
he u
forder ungen</w>
einf ach</w>
t ot
par lia
do cu
j obs</w>
d rin
ti vi
g än
W ach
auf ge
as sen</w>
de mon
for dern</w>
s ing</w>
C our
so gar</w>
oth ers</w>
om e</w>
l s</w>
K rise</w>
s ei</w>
A f
fle xi
auf grund</w>
a im
Pri or
j u
Notwendi gkeit</w>
L et</w>
b au</w>
hät te</w>
ich e</w>
Zu gang</w>
in -
erforder lich</w>
g ges
Ab sch
har mon
fi ght</w>
inde ed</w>
F </w>
sion en</w>
com b
ist an</w>
199 9</w>
impro ve</w>
Ver wal
d ort</w>
lim ate</w>
Cour t</w>
star t</w>
Be kämpf
ger ung</w>
Bed ingungen</w>
lin ien</w>
Ko so
con sequ
näch sten</w>
ou ght</w>
w le
z er
kon n
ig ung</w>
ment ary</w>
Gebie t</w>
al tung</w>
s ach
op en</w>
Russi a</w>
lich es</w>
In vesti
ein ge
Fin ally</w>
v o</w>
g al</w>
curr ently</w>
Bekämpf ung</w>
se tz
ac tions</w>
ro w</w>
län der</w>
er weise</w>
resul ts</w>
rau m</w>
el ess</w>
Arbeitsp lä
meet ing</w>
r e</w>
umfas sen
T e
So lidar
S ub
Energi e
entr al</w>
tiv ely</w>
an genommen</w>
n on-
zah l
concern ing</w>
könn ten</w>
sich er</w>
disc uss
tei le</w>
jen igen</w>
au m</w>
li ght</w>
gen ann
Ta ges
de ta
Di rec
ch es</w>
M or
der n
Bevölk erung</w>
entschei den
in nov
D a</w>
fo c
imp act</w>
200 6</w>
G ele
tn is</w>
vi c
Menschen rech
ü h
er inn
200 2</w>
Y ou</w>
Dies er</w>
m einen</w>
under stand</w>
ag es</w>
hal t</w>
Wach st
abl ed</w>
re ly</w>
consu mers</w>
Über ein
vi ous</w>
d est
Sch ritt</w>
kin d</w>
fa il
2 5</w>
li ed</w>
tei lt</w>
P ol
Auf gabe</w>
or s</w>
schließ en</w>
ran k
Beit rag</w>
D </w>
need ed</w>
An d</w>
K ul
An wendung</w>
Vol k
wichti gen</w>
s ha
b ru
do ing</w>
Ge f
Z w
m als</w>
is ierung</w>
c ases</w>
m embers</w>
en der</w>
se k
Stru ktur
wer s</w>
en e</w>
ab zu
sam keit</w>
them selves</w>
p s</w>
ver ur
vor zu
Verbesser ung</w>
sozi ale</w>
zuneh men</w>
Her aus
wei ß</w>
ge ts</w>
er war
wle d
edu cation</w>
dis ku
fäh igkeit</w>
lan g</w>
tei di
er sch
T o</w>
adv an
hei ßt</w>
Hau p
mon ths</w>
stat t
hin sichtlich</w>
w ander
m eines</w>
Rei he</w>
er ungs
schrif tlich</w>
ver fü
legisl ative</w>
F r
prin ci
rin zi
f ication</w>
e v
tz </w>
ih rem</w>
requi re
mat ters</w>
er reicht</w>
B ei</w>
be züglich</w>
200 4</w>
ari an</w>
c limate</w>
Initi ative</w>
In te
conf lic
Por tu
Bes timm
de ter
K ra
si di
Er fol
fortun ately</w>
con struc
so lidar
Off ice</w>
an y
verstän dlich</w>
ig keiten</w>
b reit
e uro</w>
dat a</w>
gan gen</w>
mo ve</w>
sub stan
am oun
re ach
re li
princi ples</w>
Au f</w>
reas ons</w>
c en</w>
con tra
D ec
Stand punkt</w>
si s</w>
Fortsch ritte</w>
n ed</w>
accep table</w>
en ts</w>
A mer
ator y</w>
gan genen</w>
Amer ic
z eh
A gr
ru p
K amp
zo gen</w>
o m</w>
eff izi
Agr ar
wirtschaf tliche</w>
or ig
F äl
ti schen</w>
tro ffen</w>
Program me</w>
Dienst leist
fa ir</w>
ic k
Verein bar
c la
all erdings</w>
ich te</w>
du e</w>
ne g
maß nahmen</w>
del i
Berich ts</w>
le it
exc ell
ven ess</w>
en ough</w>
D in
of f</w>
s ag
an der</w>
ei gent
K oh
Hand el
ge fähr
im mi
B est
de al
us t</w>
ver antwor
K enn
hand eln</w>
200 3</w>
ständi g</w>
Ko sten</w>
d n
blei ben</w>
ein deu
reg ards</w>
b ish
ä ß</w>
op </w>
pro z
Gi pf
on g
er he
tivi ties</w>
da r</w>
w ahr
d liche</w>
Forsch ung</w>
L a
inv es
richti g</w>
S er
par ties</w>
z ed</w>
sh </w>
f unding</w>
di re
lä u
re ports</w>
ih m</w>
pro jects</w>
W ar
h es
z entr
Ge wal
t on
com promise</w>
W ieder
för dern</w>
sit z
Fü r</w>
co sts</w>
begrü ße</w>
schwi eri
at ast
nach hal
Koso vo</w>
S econ
Kontrol le</w>
pre p
ber u
bar en</w>
atast rop
por ted</w>
ex am
c ru
op p
signific ant</w>
kon trol
se t
W il
Z weit
R uss
E mpf
Sp an
O b
achie ved</w>
Interes sen</w>
er fül
t an
individu al</w>
1 2</w>
ist ance</w>
r icht</w>
Ver fü
unter schied
Bere ichen</w>
Gesch äf
Beschäf tigung</w>
im mt</w>
sustain able</w>
ac tivities</w>
schließ end</w>
e p</w>
demon str
fe el</w>
J anu
t a</w>
pri ority</w>
rit eri
mittel n</w>
W ort</w>
mul ti
Richt ung</w>
writ ing</w>
S el
Le ben</w>
D E</w>
i denti
l and
ih n</w>
join t</w>
gen heiten</w>
eri es</w>
C hr
inde pen
am ong</w>
Partn er
Gele genheit</w>
Po si
us ing</w>
commit ment</w>
ti veness</w>
al though</w>
olo gy</w>
s es</w>
se en</w>
Con vention</w>
Tran spar
p ly</w>
er ste</w>
lon ger</w>
For m</w>
e ar
Ergebn is</w>
Mitglie der</w>
w ob
Steu er
k ul
ide a</w>
solu tions</w>
a gi
H aus</w>
ex ter
gr ün
Präsiden tschaft</w>
200 5</w>
Gemein schafts
ver än
car ri
dra ft</w>
S ol
Auff assung</w>
Tages ordnung</w>
grund le
Ges ellschaft</w>
th an
tr ue</w>
G el
ta x</w>
K ommission
M är
unter nehmen</w>
P f
hn t</w>
lo cal</w>
sp ru
lit tle</w>
je der</w>
gemein sam</w>
promo te</w>
tic s</w>
Re form</w>
rit er
der zeit</w>
su gges
äußer st</w>
st u
govern ments</w>
pa y
wür di
U N
Isra el</w>
c aus
lan g
tra di
richt ung</w>
e w
pla y</w>
inte gration</w>
einzel nen</w>
A ll</w>
chan ges</w>
Erklär ung</w>
europä ischer</w>
ges etz
Bürger innen</w>
ass ess
a im</w>
or ing</w>
fan g</w>
no thing</w>
congratul ate</w>
p ast</w>
m einem</w>
Amend ment</w>
provi ded</w>
arbeit et</w>
wen den</w>
M y</w>
gu i
ch er</w>
m ean</w>
Mehr heit</w>
P ra
fi zi
excell ent</w>
ter rit
so li
W h
L in
cre di
is ing</w>
agen da</w>
f y</w>
ator s</w>
pro vis
K li
Regier ungen</w>
1 .</w>
per haps</w>
ges prochen</w>
nu clear</w>
stan den</w>
ti l</w>
im um</w>
200 9</w>
get ary</w>
e ven
str ong</w>
Vorsch riften</w>
min des
an aly
effec t</w>
contin u
a z
mil it
ele gation</w>
201 0</w>
S or
W es
regar ding</w>
c r
ver stär
be hin
Ri ghts</w>
fin al</w>
solidar ity</w>
le ad</w>
wur f</w>
speci al</w>
bere ich</w>
ber eit</w>
in dic
o re
schein t</w>
Umwel t</w>
pre vent</w>
inte gr
is i
fü n
mark ets</w>
Wi th</w>
Proto kol
be teili
b lo
ou th</w>
yo ung</w>
Kom promis
Ver kehr
ein ander</w>
inclu de</w>
re sol
en nung</w>
agre ed</w>
über zeu
sch t</w>
en ten</w>
to o
Kli ma
l er
M </w>
re alis
wer t</w>
Bürger n</w>
s sen
ger ich
200 7</w>
suff ici
Gesund heit</w>
m ed</w>
b order</w>
sch ü
gesam ten</w>
dis crimin
a de
guaran tee</w>
mo d
ver ein
Ein führung</w>
en or
g te</w>
lab our</w>
st ability</w>
es sen</w>
gewähr leisten</w>
we der</w>
Land wirtschaft</w>
Jah res</w>
N i
un ities</w>
Rechts vorschriften</w>
C h
ver hin
em is
tri e
p ack
völ lig</w>
lich erweise</w>
aspec ts</w>
or row</w>
g in
m oment</w>
tats ächlich</w>
ma kes</w>
Sch ul
Berichterstat terin</w>
eben so</w>
E le
Mar kt</w>
W oh
un ion</w>
Fischer ei
m ember</w>
t yp
Mög lichkeiten</w>
pre sen
rel ation</w>
ta ge</w>
dra w</w>
benef it</w>
W TO</w>
w a</w>
gi c</w>
re main
S ep
F amili
ta x
o ds</w>
Verfü gung</w>
C o
h en
D en
Dialo g</w>
S an
ci r
Te chn
consu mer</w>
ac ro
transpar ency</w>
Presiden t-
in- Office</w>
Transpar enz</w>
nu tzen</w>
gem äß</w>
re main</w>
Kon fli
ver m
sever al</w>
fore ign</w>
w and
acc ession</w>
ver kehr</w>
le ar
stru k
si eht</w>
auf en</w>
Direc tive</w>
abo ve</w>
f eh
pop ulation</w>
Gesund heits
f rie
Sta ats
a -
con nec
pro ject</w>
Disk ussion</w>
S eite</w>
Sel b
Rah men
wen ig</w>
demokrati schen</w>
O ur</w>
Beschäf tig
M eine</w>
men sion</w>
le di
Drit t
e ver</w>
s ci
B an
in gt</w>
app ly</w>
re lev
sp ä
bed au
up on</w>
ü bri
for men</w>
d ri
D am
zu sätz
best ehen</w>
gn isse</w>
ch en
tre ffen</w>
mor gen</w>
l ö
R o
I m
b an</w>
gen t</w>
G u
contribu tion</w>
ili ties</w>
a vo
h im</w>
bo dy</w>
Entschei dungen</w>
civi l</w>
Er zeu
auf zu
ar o
c t</w>
F e
Empf eh
best eh
n ess</w>
respon se</w>
m ing</w>
ü l
tom orrow</w>
terror ism</w>
po l
Do ku
Lissab on</w>
verbesser n</w>
rupp en</w>
is ten
le gi
I tal
President- in-Office</w>
busin ess</w>
U kra
gleich en</w>
B r
Kin der</w>
rupp e</w>
wün schen</w>
kommen s</w>
gleich zeitig</w>
Au ßer
b are</w>
c ally</w>
Th erefore</w>
prac tice</w>
spe ak</w>
techn ical</w>
addi tion</w>
5 -0
our selves</w>
g ungs
disc ussion</w>
Secon dly</w>
struc ture</w>
tu rel
commun ication</w>
F R</w>
vot ing</w>
jus ti
En g
co hes
ktion s
n immt</w>
guaran te
t ei</w>
l ands</w>
se tzt</w>
su ch
itä ts
A C
hel d</w>
zun ächst</w>
val ues</w>
tr au
bal ance</w>
pa y</w>
f rü
Sep t
h atten</w>
riteri a</w>
schaf t
riter ien</w>
anges ichts</w>
wä h
exis ting</w>
F ran
he ar
kl ar
deter min
colleag ues</w>
ing ly</w>
invest ment</w>
unser em</w>
edu res</w>
p ite</w>
sh are</w>
en ge</w>
c riteria</w>
200 8</w>
Zweit ens</w>
provis ions</w>
W er
se ems</w>
sch ul
stand ing</w>
men ted</w>
po ver
leg ung</w>
Sept ember</w>
ro ad</w>
ans wer</w>
K ap
V </w>
Außer dem</w>
In di
ständi gen</w>
servi ce</w>
e ful</w>
re fle
H ins
beit ra
fall en</w>
ei ther</w>
institu tion
get an</w>
proc edures</w>
O pf
E i
ple ased</w>
Kamp f</w>
f ten</w>
ei g
Angele genheit</w>
re pe
or gan
elec tions</w>
O ne</w>
bek ämpf
ti er
dan ke</w>
B </w>
W eit
ex pen
d -
je den</w>
äu ß
exc lu
Bestimm ungen</w>
B ud
el en</w>
Geschäf ts
cul tural</w>
ass istance</w>
Sch i
ur ing</w>
priv ate</w>
viol ence</w>
con tain
am b
O p
Gewal t</w>
sen se</w>
be für
con fi
da tion</w>
an z</w>
et wa</w>
Tex t</w>
wi ll
R ats
Bem üh
vi ously</w>
pre siden
S ec
Menschenrech ts
it t</w>
K ön
Arbeitneh mer</w>
wob ei</w>
so on</w>
et ary</w>
al tern
Z un
No v
ologi cal</w>
se x
Ergebn isse</w>
P ak
F ern
R isi
cohes ion</w>
fish ing</w>
vorgesch la
re stric
hel fen</w>
hap pen
cre ation</w>
N ationen</w>
sta ge</w>
S pra
gen d
g -
b zw
am e</w>
bzw .</w>
sor gen</w>
Entschließ ungsan
gi en</w>
hä l
erhe b
st verständlich</w>
isch es</w>
U N</w>
1 1</w>
tor en</w>
prü fen</w>
s einem</w>
st ance</w>
ex press</w>
milit ary</w>
beitra gen</w>
un til</w>
increas ing</w>
t abled</w>
Russ land</w>
th en
f ern</w>
Bemüh ungen</w>
K </w>
sion s
P unkte</w>
stat ement</w>
as ked</w>
ep t</w>
pub li
oura ble</w>
F est
bie ten</w>
cru cial</w>
tra ff
sit z</w>
P ap
Aussch uß</w>
succ ess</w>
wi l
om s</w>
4 0</w>
every one</w>
c are</w>
carri ed</w>
lin es</w>
c a</w>
basi c</w>
Gef ahr</w>
zeich net</w>
ste ad</w>
de pen
sag te</w>
Solidar ität</w>
Erfol g</w>
fa ci
l te</w>
empha s
sa ying</w>
Finan zierung</w>
regul ations</w>
r ate</w>
pover ty</w>
g lichen</w>
Them en</w>
sh or
sätz e</w>
Binnen markt</w>
tra ining</w>
c ro
vor lie
rich ten</w>
bil dung</w>
al ist</w>
a ir</w>
G eld</w>
fac e</w>
tro ff
fas sen</w>
Mar k
groß er</w>
adop t</w>
organis ations</w>
schaf tlichen</w>
St u
Auf merk
co ver
far mers</w>
Angele genheiten</w>
g or
er hö
Wel t
V öl
nation aler</w>
at en
ne ver</w>
S lo
Aufmerk samkeit</w>
succ ess
consequ ences</w>
s an
spe e
w ing</w>
sicher heit</w>
di </w>
trä gen</w>
berücksichti gt</w>
z eit
sol chen</w>
Din ge</w>
Nov ember</w>
Zeit punkt</w>
blei bt</w>
it em</w>
lan ge</w>
ser ve</w>
ish ed</w>
g ar
il legal</w>
equ al</w>
Industri e</w>
tr auen</w>
minis ter</w>
ge ben
applic ation</w>
H ar
zei gen</w>
increas ed</w>
sel s</w>
Ein wander
Ukra ine</w>
Gro ß
lan gu
b ür
rel ating</w>
bish er</w>
pra kti
M an</w>
unser es</w>
gh out</w>
ach t</w>
St at
nam ely</w>
gra ph
Inte gration</w>
t es
ein heit
ord n
M is
s atis
Präsiden ten</w>
G </w>
re gre
T ä
protec t</w>
Dies es</w>
bit te</w>
Ko ordin
Frei heit</w>
reques t</w>
ad ing</w>
inter nationale</w>
cor rec
P rinzi
ermög lichen</w>
An satz</w>
genann ten</w>
ledi glich</w>
dis ast
re duce</w>
ver pflich
ver gangenen</w>
Stell ung
chall eng
reli gi
institu tional</w>
D ru
Fol gen</w>
M E
eff ek
me tho
lei der</w>
ob wohl</w>
K rie
ür z
k o</w>
h ier
vorgesch lagen</w>
stim me</w>
re ich</w>
geh end</w>
M an
Am ster
Ver b
rif f</w>
rit ts
wi er
read ing</w>
Ir an</w>
every thing</w>
sch reit
present ed</w>
sho w</w>
1 2
requi red</w>
prop er
program m</w>
require ments</w>
instru ments</w>
V or</w>
Inter net</w>
eh e</w>
ag ed</w>
c ol
S tim
Hand el</w>
ac tive</w>
l uss
le ch
Agen da</w>
w issen
clo sed</w>
Do ch</w>
opport unities</w>
develop </w>
pers ön
L ei
st in
ru le</w>
fol gt</w>
Änder ung</w>
vor gelegt</w>
val ue</w>
att emp
sidi ar
gen der</w>
consu l
Par ty</w>
prom ot
Er stens</w>
ste u
in ed</w>
er ster</w>
s on</w>
C </w>
un abhängi
L eit
clo se</w>
Inform ations
tei en</w>
our cen</w>
th us</w>
sch utz
W hen</w>
me et</w>
fol ge</w>
bud getary</w>
me isten</w>
Grün den</w>
K l
ta kes</w>
E N</w>
im medi
am eri
to ber</w>
sch utz</w>
H ier</w>
partn er
men ten</w>
spe ak
Investi tionen</w>
ver ab
streng ungen</w>
w ater</w>
bestimm te</w>
schie den</w>
nat ure</w>
Min der
ade qu
st ei
throu ghout</w>
Dam it</w>
wieder hol
cir c
Sch wier
an erk
Be teili
hil fen</w>
S ü
n ü
ier ten</w>
Arbeitsplä tze</w>
pri orities</w>
v </w>
Bil dung</w>
Th ank</w>
eigent lich</w>
o ft</w>
Er fahr
Volk s
m ut</w>
ung sh
Sch en
ell er</w>
ur s</w>
tu al</w>
Proz ess</w>
Flu g
Con stitu
fo und</w>
Wah l
c lar
wichti ger</w>
wen det</w>
K re
ha se</w>
erfol gre
instru ment</w>
Gr enz
wled ge</w>
u tion</w>
tiv ity</w>
jus tice</w>
I de
aro und</w>
ad s</w>
ch tung</w>
o -
t on</w>
sch w
Person en</w>
ut ely</w>
Wettbewer b</w>
weit eren</w>
o ben</w>
hin weisen</w>
ger ungen</w>
m as
S ache</w>
enth alten</w>
kon z
Ö ffent
val u
bur g</w>
Aspe kte</w>
f ast</w>
ther more</w>
M än
j ob</w>
con v
poten tial</w>
N A
begrü ßen</w>
r .</w>
T at</w>
Sit zung</w>
publi k</w>
men tion</w>
prep ared</w>
verschie den
um s</w>
hä lt</w>
wi der
initi atives</w>
re f
beg inn
b ank</w>
f ron
fun ktion
y l
bew us
establ ish</w>
st off
Haushal t</w>
An strengungen</w>
lu ß</w>
it arian</w>
we ek</w>
Regel n</w>
ke ep</w>
us sions</w>
he ben</w>
zw eite</w>
su chen</w>
F ahr
comm unity</w>
ment ar
dem and</w>
ent ri
Verpflich tungen</w>
il leg
direc t</w>
lo si
h ung</w>
An nahme</w>
Vor aus
spe k
ag rap
pur su
B ul
is ts</w>
hät ten</w>
F ur
U hr</w>
po wers</w>
G lob
em er
Terror ismus</w>
U m</w>
F eh
spiel en</w>
1 0
amoun t</w>
K an
F le
. .
ti ven</w>
besch äf
F lü
Gr enzen</w>
deci ded</w>
sek tor</w>
pres sure</w>
pre par
pre vious</w>
zeich ne
la st
Z wei
li mit
conflic t</w>
de a
versu chen</w>
Z entr
Verf assung</w>
n ommen</w>
as soci
vi er</w>
be hör
reach ed</w>
ä stin
establish ed</w>
St är
vel s</w>
lo ssen
l or
exter nal</w>
y ed</w>
Zah l</w>
arbeit ung</w>
da ys</w>
mo vement</w>
geb ie
Pal est
Bem erk
el ten</w>
C ha
ge wiesen</w>
zu setzen</w>
H oh
betre ff
ver kehr
Bar ro
relev ant</w>
si ert</w>
ten ce</w>
H um
ö ff
Dar über</w>
li ve</w>
is es</w>
zieh ung</w>
decis i
monit oring</w>
addre ss</w>
tal king</w>
rit ten</w>
r aten</w>
ch s</w>
Be wer
Protokol l</w>
D aten</w>
as ser
De ut
ak tu
fish eries</w>
Hins icht</w>
rou ght</w>
20 20</w>
expres sed</w>
Zi vil
gh tly</w>
imple mented</w>
ra ised</w>
d om
k enn
tion s
auf genommen</w>
streng then
F und</w>
t ask</w>
al es</w>
Änder ungen</w>
mö chten</w>
f am
angem essen
setz ungen</w>
Ab schließend</w>
Z um</w>
zeh n</w>
her r
Lan des</w>
B u
Mit teilung</w>
De velop
Instru ment</w>
con t
ti ger</w>
n t</w>
acro ss</w>
p i
fun den</w>
le vels</w>
Vertra gs</w>
losi gkeit</w>
Qu alität</w>
e ks</w>
th eless</w>
Mitgliedsta at</w>
B ank</w>
f ern
stru ktur
en able</w>
Af gh
Frie den
p u
f est</w>
bed ingungen</w>
icht sh
Wo che</w>
qu ick
sh e</w>
Schwier igkeiten</w>
conclu sion</w>
ell ing</w>
drück lich</w>
In nov
erinn ern</w>
cri tic
Ratsprä siden
poin ted</w>
U S</w>
Un i
Zu </w>
N r.</w>
an ia</w>
vic tim
fi ve</w>
a men
foc us</w>
entwick eln</w>
Sch ließ
re view</w>
troff enen</w>
schn ell</w>
Abgeordne te</w>
Dienstleist ungen</w>
ges sen</w>
wa ste</w>
b riti
v al</w>
z es</w>
bel ie
challeng es</w>
b ein
wh ose</w>
discrimin ation</w>
direc tion</w>
th y</w>
li gen</w>
sci enti
k eit
Portu gal</w>
eindeu tig</w>
eff ort</w>
lo c
bek annt</w>
s sel
Gesetz geb
Fr ance</w>
1 4
cri me</w>
inclu ded</w>
experi ence</w>
p er</w>
L es
gri ffen</w>
bal an
addre ss
aus reich
S um
h u
f our</w>
berücksichti gen</w>
ter ran
port ing</w>
I rel
ec e</w>
Tran sp
Rats vor
spru ch</w>
as ure</w>
K omm
konz entri
be handelt</w>
Irel and</w>
c are
än de</w>
quick ly</w>
victim s</w>
f -
Öffent lichkeit</w>
L assen</w>
tu res</w>
tel l</w>
ver standen</w>
Kon ferenz</w>
k ein
P len
ar gu
partn ers</w>
g el</w>
K riterien</w>
di e
R ess
co st</w>
Mitgli ed</w>
dou bt</w>
drin gend</w>
gab </w>
dar stellt</w>
Amster dam</w>
effec ts</w>
Demo cr
k riti
zah l</w>
v ital</w>
e ed
e vi
fü h
Unter such
Ges am
absol utely</w>
er greifen</w>
M al</w>
4 -0
ten den</w>
j ün
u res</w>
rec ently</w>
Wettbewerbs fähigkeit</w>
imple ment</w>
m a</w>
Ar mut</w>
di o
bor ders</w>
s po
sec tors</w>
con fir
f il
mat eri
K rank
g riff</w>
f ig
s la
d au
bil ater
ehr te</w>
immi gration</w>
too k</w>
than ks</w>
b illion</w>
agricul ture</w>
Posi tion</w>
ol er
Develop ment</w>
no te</w>
sup ported</w>
verhin dern</w>
gh bour
er ne
Bel ar
ec k</w>
tre at
der zei
t ely</w>
reduc tion</w>
po st
Opf er</w>
kra ft
A sy
An erk
re ality</w>
re st</w>
ni em
V i
da ma
tal k</w>
suffici ent</w>
K ern
zusam men</w>
ck en</w>
lan gen</w>
end lich</w>
H a
g ül
Wachst um</w>
P L</w>
re forms</w>
gehör en</w>
Ta g</w>
gerich tet</w>
wir ken</w>
mis sion</w>
sh ort</w>
Con ference</w>
H ö
sib ilities</w>
gesam t</w>
Mar kt
ob ach
comple tely</w>
gew o
1 3</w>
T i
ge o
li ance</w>
we den</w>
o s</w>
m ein</w>
lo se</w>
Organis ation</w>
Ver teidi
struc tural</w>
ta g</w>
con trol
Sin ne</w>
2 7</w>
fel low</w>
bet onen</w>
pl om
lon g-
be kommen</w>
ter t</w>
ä lt</w>
w ise</w>
re over</w>
pack age</w>
er ing</w>
.. .</w>
ben ö
ein gesch
Anerk ennung</w>
b rought</w>
B riti
gi ving</w>
Zun ächst</w>
m es
terran ean</w>
E ast</w>
ier ungs
Nach bar
out side</w>
P P
Haup t
erne ut</w>
öffent liche</w>
F ren
Verkehr s
del ines</w>
can di
em e</w>
st ep
Afri ca</w>
Medi terranean</w>
techn ology</w>
hö ch
I I</w>
in fra
su per
lo t</w>
l ist</w>
sch wer
Ira q
be mü
gesch affen</w>
Stellung nahme</w>
we is</w>
kul turel
spezi f
fä hi
e ws</w>
B i
1 8</w>
mit ted</w>
ac ity</w>
appro ved</w>
haup t</w>
pos sibility</w>
ver gessen</w>
stat us</w>
d .</w>
obli g
Vertre ter</w>
Rech t
ung sp
fin ally</w>
best ä
exp lo
kan ischen</w>
f ic</w>
A gre
wichti gsten</w>
busin esses</w>
Minis ter
presiden cy</w>
re ach</w>
mo tion</w>
develop ed</w>
die jenigen</w>
a king</w>
Gemein samen</w>
parlia mentary</w>
sta aten</w>
ich ten</w>
zu führen</w>
ver treten</w>
S icht</w>
ob il
kl einen</w>
Wah len</w>
un employment</w>
ex tent</w>
Beschäftig ungs
n ö
stan ces</w>
bes sere</w>
199 8</w>
ge funden</w>
recei ved</w>
A pri
Handel s
f ran
al ong</w>
Mon aten</w>
M al
Ener gie</w>
Briti sh</w>
E- Fraktion</w>
zu mindes
pri ce</w>
vers ity</w>
Frie den</w>
app lied</w>
1 4</w>
pre hen
off en
an ischen</w>
ein schließlich</w>
sel y</w>
fi g</w>
he ard</w>
zumindes t</w>
treat ment</w>
bi o
da durch</w>
k rä
al most</w>
represent atives</w>
is ely</w>
Vereinbar ung</w>
ra h
H altung</w>
circ um
Par teien</w>
stär k
Fir stly</w>
encoura ge</w>
Fren ch</w>
P -
a way</w>
lä ssi
dis e
ck s</w>
S y
Apri l</w>
p un
Ver trauen</w>
nat ural</w>
Gipf el</w>
N ations</w>
stre ss</w>
re qu
Fü hr
gu ten</w>
addi tional</w>
Mittel me
neh m
fün f</w>
prop er</w>
di enen</w>
Les ung</w>
discuss ed</w>
o ten</w>
coordin ation</w>
e u
Beit ritts
par agrap
ent er</w>
me dic
tic ally</w>
assess ment</w>
Dec ember</w>
p at
con om
Regier ungs
cre ating</w>
cro ss
erwä hnt</w>
E conom
ens uring</w>
Sek tor</w>
behin d</w>
finan cing</w>
competi tiveness</w>
befür wor
kur z</w>
ge fordert</w>
R ed
gn is</w>
Inter national</w>
b auen</w>
ander er</w>
pri ces</w>
h ne</w>
De z
über haupt</w>
For derung</w>
ren ew
Re public</w>
O n
pre v
inf lu
de p
e qui
su l
ver k
Re publik</w>
dan ger
s us
Lu ft
der ar
ges und
alle in</w>
Beit ritt</w>
rech t
fre ue</w>
E ff
mod el</w>
Ver bin
docu ment</w>
I T</w>
c tions</w>
Ein zel
Fur thermore</w>
bed ingt</w>
Über wach
bestimm ten</w>
li ving</w>
lö sen</w>
hör en</w>
EC </w>
s st</w>
th ern</w>
our s</w>
consider ed</w>
Dru ck</w>
sicher zustellen</w>
Heraus forderungen</w>
y on
st ä
li erung</w>
z one</w>
c ent
tr on
ss el</w>
St elle</w>
m and
- 00
finanzi ellen</w>
cap acity</w>
off er</w>
prac tical</w>
timm ung</w>
z äh
disc ussions</w>
sich ern</w>
con duc
Land wir
bal d</w>
even ts</w>
tr äch
gui delines</w>
tre i
Regel ung</w>
ü hr
li ert</w>
V is
Afgh an
ri gen</w>
streng then</w>
W ei
hä u
emis sions</w>
Regi on
Ein igung</w>
ann ual</w>
An frage</w>
Re formen</w>
beg in</w>
um -
x is</w>
Dez ember</w>
enth ält</w>
men sch
g ste</w>
g liche</w>
f amili
del a
Kommission s
hin zu
c amp
1 .
sp i
um gesetzt</w>
Initi ativen</w>
re jec
administr ative</w>
o t</w>
W ahr
B rü
erzi elt</w>
n or</w>
le ft</w>
Ne u
remain s</w>
kno wn</w>
C han
Geschäfts ordnung</w>
tran si
affec ted</w>
connec tion</w>
sin n
zü gi
Verein ten</w>
unterstü tze</w>
bit ten</w>
legi tim
f lo
H ung
adop tion</w>
un ver
regi me</w>
disc uss</w>
Prior itäten</w>
confi dence</w>
spec ific
O f</w>
gen au
gro und</w>
kon ferenz</w>
effici ency</w>
st au
Nat ürlich</w>
un acceptable</w>
b y
außer dem</w>
sc ope</w>
wä l
er neu
da tions</w>
go ods</w>
einzi ge</w>
akzep tieren</w>
te te</w>
g ungen</w>
fre ien</w>
Barro so</w>
k rise</w>
lo k
Ihr er</w>
direc tly</w>
st abil
konkre te</w>
Wir k
Or gan
la ss
gel ten</w>
human itarian</w>
pris es</w>
8 0</w>
or d</w>
ad d</w>
f es
as yl
Belar us</w>
it ing</w>
expec t</w>
fest gelegt</w>
sor gung</w>
lang fris
for ces</w>
ex er
d on
ge kommen</w>
D ro
ge troffen</w>
bewus st</w>
Europ e
stat ed</w>
frei heit</w>
deta il
D an
ach en</w>
N etz
en te</w>
schü tzen</w>
vi a</w>
g aran
e gu
tr itt</w>
sit ting</w>
gesam te</w>
J e
Un sere</w>
re in
in tel
equ ality</w>
uni k
plan s</w>
z ös
F ak
aussch usses</w>
neg ative</w>
re fu
versu cht</w>
T ro
com prehen
ho ffen</w>
me t</w>
ex pla
S eiten</w>
ver an
Finan zi
tiv itäten</w>
Democr ats</w>
aussch uss</w>
con dem
Kra ft</w>
des pite</w>
konn te</w>
verm ei
C entral</w>
Agre ement</w>
Fäl len</w>
Econom ic</w>
Stabil ität</w>
p ass
avo id</w>
buil ding</w>
Flü cht
di ent</w>
ti sche</w>
gew esen</w>
bie tet</w>
än dern</w>
überzeu gt</w>
ermög licht</w>
or e</w>
Verf ass
k raten</w>
g as</w>
M einer</w>
p li
Entschließungsan trag</w>
Wor ld</w>
aim ed</w>
es ter
selb stverständlich</w>
re ad</w>
le istet</w>
st en
6 0</w>
st op</w>
effec tively</w>
Bal k
zw eiten</w>
kre ich</w>
künf tigen</w>
Ver wendung</w>
Zus timmung</w>
Palest in
tr ying</w>
difficul ties</w>
star k</w>
prec isely</w>
ein gehen</w>
Wi der
adequ ate</w>
kur z
nei ghbour
gh ted</w>
Berich te</w>
se par
an ge</w>
eth n
fäl le</w>
ne t
Fir st</w>
human itär
O st
Disk rimin
Koh ä
z ation</w>
Kul tur</w>
presen ts</w>
v ements</w>
fam ily</w>
j ud
tor y</w>
r ates</w>
ü ro
gele istet</w>
P T</w>
vol le</w>
ab ei</w>
anges prochen</w>
A chtung</w>
comm er
person al</w>
car ry</w>
x em
s th
le gt</w>
h op
b ly</w>
beg lück
sum mit</w>
Fran kreich</w>
Zu ständi
Ge or
ir gend
Jun e</w>
contribu te</w>
besch lossen</w>
in stead</w>
je dem</w>
li </w>
un er
hon ourable</w>
re ference</w>
An trag</w>
reich e</w>
occ a
Kön ig
steh enden</w>
D abei</w>
Viel en</w>
stär ker</w>
vi ews</w>
B ot
alis ed</w>
accord ance</w>
open ha
ro ati
erwar ten</w>
sh own</w>
enter prises</w>
H off
zu frie
Ress ourcen</w>
ür f
O -
ger t</w>
Gener al</w>
richti ge</w>
Milli ar
def ence</w>
asyl um</w>
inter pre
fa ir
Ma y</w>
Sch utz
saf egu
ver bin
ier te</w>
ins gesamt</w>
über schreit
ester day</w>
gele gten</w>
Beh and
199 7</w>
Schließ lich</w>
vor gesehen</w>
ati c</w>
circum stances</w>
bour g</w>
rup tion</w>
un bedingt</w>
be ziehen</w>
la gs</w>
ver stehen</w>
ac y</w>
at or</w>
rel ated</w>
est ing</w>
on es</w>
S en
Afghan istan</w>
Poli cy</w>
go es</w>
ativ </w>
All erdings</w>
it z
war um</w>
ac ts</w>
gre if
Jus tice</w>
So ci
partner ship</w>
1 6</w>
ab kommen</w>
grat u
mechan is
b s</w>
n isse</w>
Lebens mittel
gel an
ge tragen</w>
success ful</w>
Ger many</w>
e ed</w>
Haushal tsp
t ali
Binnen mark
Reg ulation</w>
w ell
hin gewiesen</w>
Pe ople</w>
Stär kung</w>
is tung</w>
om men
h .</w>
gre at
strate g
hu ge</w>
sch es</w>
impro ving</w>
A n</w>
j un
r at</w>
mes sage</w>
cul ture</w>
accord ing</w>
brin gt</w>
zi eht</w>
Durch führung</w>
ch ed</w>
besteh enden</w>
K atastrop
Ein f
per spec
cre ated</w>
orig in
Bere iche</w>
besch rän
Kon zep
kl are</w>
ges ellschaft</w>
zwei fel
disku tieren</w>
commit ted</w>
1 00</w>
w ron
ge ments</w>
k or
A L
allow ed</w>
Instru mente</w>
inten si
min imum</w>
conclu sions</w>
inves tig
bere ch
E mis
m y
zuneh men
olo gie</w>
Währ ungs
ge eig
Ger ichtsh
Ges prä
Bei hilfen</w>
in ation</w>
consider ation</w>
tot al</w>
i um</w>
Kenn tnis</w>
com ments</w>
Klima wand
effici ent</w>
re ign
heu tigen</w>
beginn ing</w>
el i
Ver än
innov ation</w>
chall enge</w>
Ber u
call s</w>
da p
spee ch</w>
je des</w>
er zeu
eh er</w>
st elle</w>
provi ding</w>
A t
Br us
Organis ationen</w>
sicher lich</w>
Ratsprä sident</w>
benef its</w>
ge worden</w>
f el</w>
gran ts</w>
p il
b ra
fal t</w>
r ing</w>
des ign
Ber eit
t oler
zu stimmen</w>
ju di
au t</w>
allgem einen</w>
or den
t our
ut ting</w>
indepen dent</w>
qu al
provi des</w>
on nen</w>
si zed</w>
hol d</w>
Lin ie</w>
re agi
qu ali
particip ation</w>
K or
proz ess</w>
en ding</w>
l ten</w>
ausge zeichne
P rü
lie be</w>
consider able</w>
neu er</w>
Deut sch
A P</w>
zw eit
wi de</w>
r ural</w>
för dert</w>
sup ply</w>
durch geführt</w>
ar ing</w>
propos e</w>
ri ghtly</w>
Nu tzung</w>
comple te</w>
pa id</w>
lat er
zeich nung</w>
sen si
accep ted</w>
A ktion
ver tre
Re chn
ha f
Lös ungen</w>
A p
comb at</w>
lä gen</w>
som it</w>
organis ation</w>
erfül len</w>
implement ing</w>
wer te</w>
größ ere</w>
wan ted</w>
yon d</w>
mar k</w>
govern mental</w>
alis m</w>
No w</w>
li ves</w>
we ist</w>
conv inc
G rie
d d
E reign
di plom
p r
N G
bo t</w>
re turn</w>
h ard</w>
dis t
So cial</w>
y nam
B .</w>
K ar
medi um-
we is
refu ge
crimin al</w>
entschei den</w>
aus gewo
ere by</w>
oper ate</w>
Fra ktionen</w>
ti sch</w>
Brus sels</w>
Währ ung</w>
Ver gan
vern ünf
u </w>
con tent</w>
fran zös
dea th</w>
aus es</w>
I tali
pro vision</w>
exc ep
Re de</w>
s ession</w>
strate gic</w>
K ur
be finden</w>
refer red</w>
F onds</w>
erklär t</w>
Forsch ungs
transpar ent</w>
konn ten</w>
ün sti
par ty</w>
Kompromis s</w>
deal ing</w>
m ann
o il</w>
promot ing</w>
ch tet</w>
Sor ge</w>
em pf
o te</w>
le tzt</w>
sth af
h under
A d
W erte</w>
specific ally</w>
c ame</w>
fest stellen</w>
introduc tion</w>
l ei</w>
un fortunately</w>
an a</w>
la m
9 8</w>
scienti fic</w>
seri ously</w>
step s</w>
pur pose</w>
ih eiten</w>
Grund satz</w>
recei ve</w>
Fe bru
H af
lä sst</w>
EC U</w>
tra v
colleag ue</w>
W issen
cap ital</w>
fas st</w>
NA TO</w>
H e</w>
201 3</w>
sel f-
Vor sitz
k oh
Aspe kt</w>
over all</w>
si x</w>
prof es
for ced</w>
mil itär
ur gent</w>
an ts</w>
exer c
s äm
t licher</w>
Pra xis</w>
Par tei</w>
clo sely</w>
staat lichen</w>
off ens
te ten</w>
gen cy</w>
on s
M U</w>
finanzi elle</w>
Gesch ichte</w>
ver si
respon d</w>
1 7</w>
Re ak
k ürz
Sta at</w>
be yond</w>
entsprech enden</w>
erzi elen</w>
w n
1 3
demokrati sche</w>
v eh
gel t</w>
H ei
gel ö
notwendi gen</w>
deci de</w>
gegenwär tig</w>
R O</w>
b ack
b rie
competi tive</w>
vorlie genden</w>
tain ed</w>
pla ced</w>
tro tz</w>
Rom a</w>
stär ken</w>
br ing
cross -
altern ative</w>
politi scher</w>
Produ kte</w>
A s
re mind</w>
ex ac
reg is
je de</w>
Vergan genheit</w>
br auch</w>
eingesch rän
rel ation
An fang</w>
ber icht</w>
den ts</w>
Inform ation</w>
Zwei fel</w>
alis ts</w>
loo king</w>
long- term</w>
tra g
spe aking</w>
geh ö
ast ern</w>
sy m
t op
st ud
limit ed</w>
Erklär ungen</w>
la un
Ein satz</w>
Pri v
ti e
ex per
ständi ge</w>
con ci
sp rün
a vi
Proje kte</w>
verpflich tet</w>
T ier
Tei l
expen di
l in</w>
Jun i</w>
bi g</w>
pro duce</w>
kno wledge</w>
vorgeschla genen</w>
Ab satz</w>
ih res</w>
paragrap h</w>
happ en</w>
me asure</w>
Gebie ten</w>
ck t</w>
inten ded</w>
simp li
H il
R au
ac tivity</w>
Ho w</w>
ge zeigt</w>
commit ments</w>
ge wäh
erk ennen</w>
kommen den</w>
prop or
aff t</w>
th ous
ver gen
balan ced</w>
To day</w>
requi res</w>
dn is</w>
Lu xem
f rau
a in</w>
mäß ig</w>
Ger man</w>
Ei gen
ein gere
Pro c
verab schie
Au stri
medi a</w>
in gen</w>
Constitu tion</w>
Iraq </w>
pas sen
an no
histor y</w>
ma x
di versity</w>
Ein haltung</w>
N ahr
1 5
ex ist</w>
sub si
Grie chen
Proje kt</w>
lea ve</w>
Ent wurf</w>
G lau
system e</w>
brau cht</w>
en ds</w>
industri al</w>
expendi ture</w>
h nung</w>
k ün
Europe ans</w>
är e</w>
A si
al ise</w>
e asi
Janu ary</w>
D enn</w>
Weit er
He ute</w>
S w
Regel ungen</w>
m ern</w>
ern sthaf
Hum an</w>
Arbeits losigkeit</w>
te x
N ieder
k ts</w>
tur en</w>
faci lit
Auf gaben</w>
keit s
wesent lich</w>
f s
dec lar
o ffen</w>
dem ands</w>
Gre ece</w>
Ak tivitäten</w>
Koordin ierung</w>
dra wn</w>
bo dies</w>
letz te</w>
T ag
gesch ehen</w>
Chr isti
end or
Deutsch land</w>
Behand lung</w>
main tain</w>
Be trie
F ore
set ting</w>
camp a
ges t</w>
verfol gen</w>
pres sion</w>
conc entr
my self</w>
Ge b
R aum</w>
Vor bereit
E S</w>
Ir ish</w>
a dap
produc t</w>
sch o
r a</w>
er lei</w>
ein gesetzt</w>
9 7</w>
sup porting</w>
openha gen</w>
Prior ität</w>
we g</w>
ear li
inc or
hel p
Aktion sp
pro b
Kap it
sam m
gan ze</w>
st ör
richt ungen</w>
amb iti
al one</w>
her aus
Stim me</w>
M and
Liber alisierung</w>
bet on
Sch luss
ur sprün
S E</w>
e vent</w>
dis tribu
ästin ens
199 6</w>
c entral</w>
En viron
ter ung</w>
re a</w>
dd le</w>
po or</w>
e as
je wei
construc tion</w>
künf tig</w>
Me tho
v ely</w>
Verwal tung</w>
c el
über nehmen</w>
dar stellen</w>
G ed
E l
aspec t</w>
enti re</w>
- B
par ts</w>
pre ci
ve au</w>
w ah
i eht</w>
au c
proper ly</w>
tu de</w>
Nu n</w>
Verwal tungs
richt linie</w>
establish ing</w>
be halten</w>
gegenwär tigen</w>
z ö
S M
gere cht</w>
Be gin
b ah
Begin n</w>
gegen sei
di gung</w>
trä gt</w>
Ver häl
wer t
re -
our ce</w>
da gegen</w>
Verpflich tung</w>
Sum mit</w>
sch le
tion ing</w>
ex change</w>
ach tet</w>
gen s</w>
c l
any thing</w>
Ir land</w>
an tly</w>
c ement</w>
d aten</w>
wron g</w>
prü ft</w>
G an
hand el
typ e</w>
fol low</w>
be darf</w>
Pro di</w>
pri mar
a den</w>
pa in</w>
medium- sized</w>
y esterday</w>
ar ran
k rimin
go sla
glau ben</w>
v an</w>
ger ne</w>
ari a</w>
ste ts</w>
H inter
auf merk
vo c
alis mus</w>
ent schieden</w>
durch aus</w>
Ein richtung</w>
R ules</w>
Min utes</w>
verfü gen</w>
Grund rechte</w>
su s</w>
re present</w>
sho ws</w>
si mi
zi ert</w>
äh n
Har mon
Diskrimin ierung</w>
m el
anim al</w>
reas on
Kolle ge</w>
f ru
Den noch</w>
at ti
Sch ritte</w>
gelö st</w>
sich ten</w>
re fer</w>
st es</w>
ambiti ous</w>
simi lar</w>
jo in</w>
kti ven</w>
produc ed</w>
entwick elt</w>
f und</w>
fi zierung</w>
Al though</w>
V on</w>
isti schen</w>
we eks</w>
discuss ing</w>
caus ed</w>
sch wer</w>
du ty</w>
conclu de</w>
auth ority</w>
bes ten</w>
it ation</w>
call ing</w>
ol l
konzentri eren</w>
Janu ar</w>
leit en</w>
ic ally</w>
do m</w>
spi ri
develop ments</w>
w on
ach ten</w>
h ome</w>
Dur ch</w>
olog ischen</w>
genu g</w>
zi el
er ed</w>
poli ce</w>
ist ent</w>
Wor te</w>
Brü ssel</w>
gi ves</w>
Vol k</w>
Mittel n</w>
P s</w>
An ges
In fra
prü fung</w>
genu ine</w>
dis p
Wo chen</w>
Partner schaft</w>
ell schaften</w>
fol gerungen</w>
1 7
ab ge
Beteili gung</w>
D elegation</w>
grenz überschreit
Er n
t ab
f ts
län d
de ten</w>
stud y</w>
hand el</w>
anti -
wh om</w>
Gesetzgeb ung</w>
j ähr
ur y</w>
re presents</w>
Un fortunately</w>
high er</w>
impro ved</w>
vor han
Ch ance</w>
S ti
un sch</w>
posi tiv</w>
Sec urity</w>
M obil
Aus gaben</w>
om e
un anim
end um</w>
sc ale</w>
so fern</w>
n ie</w>
aufmerk sam</w>
tr ary</w>
Da zu</w>
verfol gt</w>
Milliar den</w>
Nahr ungs
techn ologi
emphas ise</w>
e ch
prac tic
ris ks</w>
Zentr al
produc ers</w>
A cc
wär en</w>
increas ingly</w>
For derungen</w>
s ent
b würdi
F alle</w>
ab gel
Al ban
Absch luss</w>
ate gor
bar keit</w>
Th ir
verur sach
Eng agement</w>
op position</w>
des cri
Fortsch ritt</w>
op tim
verantwor tlich</w>
sit u
tri b
happen ed</w>
fäl lt</w>
high ly</w>
anim als</w>
lü sse</w>
Sin ce</w>
ze ß</w>
Asy l
re st
partn er</w>
cri tical</w>
ur ge</w>
e arly</w>
enor m
schaf tliche</w>
achie ving</w>
c al
strengthen ing</w>
C ar
langu age</w>
ob viously</w>
Überwach ung</w>
wün sche</w>
n ern</w>
profes sion
Überein kommen</w>
hin ter</w>
gew is
wor d</w>
be auf
candi date</w>
it able</w>
re t
tr ust</w>
th e
Anges ichts</w>
S pe
Me chan
sch lagen</w>
curr ency</w>
m .</w>
w ish
se e
reduc ing</w>
Nat ur
so -
lat z</w>
entsprech end</w>
our n
sp er
form er</w>
rä u
re mo
i k</w>
l ater</w>
le t
vorsch lag</w>
d elegation</w>
po l</w>
Ital y</w>
we t
emp lo
l aufen</w>
end gül
infra structure</w>
außer halb</w>
verbesser t</w>
Unter neh
. m.</w>
Mar ch</w>
Leit linien</w>
C om
grund lage</w>
H and</w>
a str
nam e</w>
Span ish</w>
sign ed</w>
se chs</w>
comp ens
aim s</w>
stat ements</w>
stand s</w>
thre at</w>
ack no
veh ic
Tur k
d isch
li mit</w>
19 8
Ver kehr</w>
gan zen</w>
ho ch
L o
par la
Mittelme er
e ad</w>
le ading</w>
shi ps</w>
li ation</w>
requ ire</w>
us es</w>
forder ung</w>
mög lich
Empfeh lungen</w>
fin de</w>
struc tures</w>
Fol ge</w>
con sen
mann er</w>
g la
mon etary</w>
k il
intro duce</w>
regre t</w>
Bei fall</w>
us eful</w>
del l</w>
Un abhängi
convinc ed</w>
T sch
h y
ni ed
la ws</w>
si eren</w>
Ma i</w>
erfül lt</w>
he ar</w>
thin king</w>
gleich e</w>
zah len</w>
Kon tin
ne twor
sa ys</w>
Europä er</w>
J ap
introduc ed</w>
c ts</w>
offens ichtlich</w>
M acht</w>
Fore ign</w>
is en
Americ an</w>
Mo reover</w>
Sch wer
Disk us
Program ms</w>
des er
Gre en</w>
multi later
c ut</w>
ran gi
ger s</w>
con ference</w>
g ei
comp any</w>
ac qu
dama ge</w>
ther wise</w>
Lei der</w>
te dly</w>
Maß e</w>
wan ts</w>
earli er</w>
out come</w>
übri gen</w>
Bewer tung</w>
j äh
Mär z</w>
künf tige</w>
Fischer ei</w>
hervor ra
- Fraktion</w>
än dert</w>
ele ments</w>
pre vention</w>
respon sibilities</w>
some times</w>
e y
Gleich zeitig</w>
Di mension</w>
Fle xi
re member</w>
Wieder auf
T our
inte gri
ten en</w>
o l</w>
ten de</w>
hi le</w>
an geht</w>
pol lu
fir stly</w>
stimm t</w>
rei ben</w>
tri eben</w>
beg innen</w>
a i
pos es</w>
Agrar politik</w>
so- called</w>
pro fi
gel ungen</w>
disch ar
Au gen</w>
be troffenen</w>
Kohä sions
recogn ise</w>
recogn ition</w>
verschieden e</w>
In s
zeich nen</w>
analy sis</w>
Or t</w>
A g
orig in</w>
sp richt</w>
rapporte urs</w>
häu fig</w>
R um
per c
wi d
ß er</w>
ap preci
vermei den</w>
con trary</w>
be vor</w>
ti ef
conc ept</w>
Euro -
zahl reiche</w>
docu ments</w>
S outh</w>
enti rely</w>
ol s</w>
t ations</w>
P lan</w>
Schen gen</w>
sen d</w>
Gr unde</w>
s agt</w>
B us
Glob alisierung</w>
enth al
S pain</w>
un mittel
fac ing</w>
reduc ed</w>
Selb st
Landwir te</w>
influ ence</w>
coun ter
Ratsvor sitz</w>
19 </w>
comb ating</w>
spiri t</w>
ander em</w>
mög lichen</w>
J o
hoh en</w>
gan gs
conc re
ad ded</w>
verein bar
nor m
N ever
bo o
com ment</w>
Ira k</w>
me an
For t
Über zeu
territ ori
pl ause</w>
Z y
Never theless</w>
Spra che</w>
Wor ten</w>
i ma
Minis ters</w>
wesent lichen</w>
Verbin dung</w>
comprehen sive</w>
no ch
di mension</w>
In de
üro krati
am tier
Woh l
ordn ungs
liber alisation</w>
größ ten</w>
gew al
k ap
be coming</w>
ar ch
be fassen</w>
To des
m ember
establish ment</w>
T im
gen ommen
mit g
un ds</w>
Innov ation</w>
fahr ens</w>
ac ci
welt weit</w>
Ar gu
bro ad</w>
und ed</w>
N L</w>
mög licherweise</w>
fre ut</w>
entsprech ende</w>
gewähr leistet</w>
region alen</w>
Grund sätze</w>
flexi bility</w>
as king</w>
I s</w>
Environ ment</w>
Flexi bil
eli gi
ati es</w>
Stra f
N icht
under standing</w>
B ur
concre te</w>
satis fac
möglich st</w>
m ly</w>
consen sus</w>
prev ent
zu folge</w>
s ources</w>
grow ing</w>
schein lich</w>
mark s</w>
erforder lichen</w>
dire kt</w>
mp tion</w>
Af ter</w>
B au
ein iger</w>
ein setzen</w>
beton t</w>
Richt linien</w>
zi eren</w>
danger ous</w>
f ach
Um stän
zu g
st af
ic king</w>
pers on</w>
pe ten
Sp iel
th ought</w>
networ ks</w>
Wirtschafts -</w>
cross- border</w>
I hr</w>
K ris
schwieri g</w>
differ ences</w>
recommen dations</w>
ic ations</w>
Ged an
Ver sch
relation ship</w>
An aly
z .</w>
ra ise</w>
inform ed</w>
p ati
al loc
geh oben</w>
prob ably</w>
Struktur fonds</w>
anno un
ic es</w>
Zeit raum</w>
fest gestellt</w>
happ y</w>
lä gt</w>
Tä tigkeit</w>
C an
Agen tur</w>
G aran
Rum än
de gre
d ro
man u
b au
staf f</w>
advan tage</w>
li k
ei gene</w>
M c
derzei tigen</w>
practic es</w>
Americ a</w>
G est
Best and
ander s</w>
Bel gi
metho ds</w>
C or
buil d</w>
ver s</w>
per man
gen er</w>
struk tur</w>
ali en
la g
clo ser</w>
wirtschaf ts
en heit</w>
entsp richt</w>
außer orden
incor por
Bed ürf
U K</w>
Änderungsan trägen</w>
pe ac
Kra ft
l ess
7 0</w>
Gebie te</w>
Inde ed</w>
Bul g
commer cial</w>
G ruppe</w>
Palestin ian</w>
Fun da
as su
g st</w>
unter nommen</w>
San ktionen</w>
ac ks</w>
ges tern</w>
cover ed</w>
disku tiert</w>
Ru le</w>
s ent</w>
str ong
er leich
Qu es
c tive</w>
Proble men</w>
Mein ungs
el se</w>
perspec tive</w>
ru s</w>
Techn ologi
we ap
kon om
sex u
König reich</w>
jen e</w>
refuge es</w>
fol gen</w>
au ff
tain ing</w>
cu st
gel eit
O c
mor ning</w>
app lies</w>
ma ßen</w>
län dlichen</w>
strong ly</w>
sta g</w>
Griechen land</w>
ti ally</w>
san ctions</w>
lan s</w>
ä um
E G
di gen</w>
Dritt ländern</w>
er lau
mo der
au tom
exac tly</w>
ent u
Prinzi p</w>
vor an
direc tives</w>
antwor ten</w>
Ab stimm
Auf nahme</w>
l auf
inter vention</w>
defin ition</w>
s ort</w>
forder e</w>
in ci
ap </w>
stau sch</w>
sch rän
st reichen</w>
A ss
Be denken</w>
Gemein schaft
Harmon isierung</w>
nachhal tige</w>
Erfahr ungen</w>
sicher stellen</w>
re du
re den</w>
Ab kommens</w>
be troffen</w>
c ity</w>
elec ted</w>
N ah
co ver</w>
W ichti
Gener al
N ur</w>
for get</w>
beglück wünschen</w>
m är
sub mitted</w>
parla mentar
l ing
gew icht</w>
le hnen</w>
S onder
ME Ps</w>
G ra
Fre m
Min dest
Gegen teil</w>
S ome</w>
be ar</w>
absol ut</w>
lich ung</w>
open ing</w>
Viel falt</w>
Ratspräsiden tschaft</w>
la id</w>
noch mals</w>
ide as</w>
genu tzt</w>
mü n
olog ische</w>
manu fac
integr ated</w>
An der
organis ed</w>
d ynam
attemp t</w>
techn ischen</w>
institution ellen</w>
beauf tra
Frieden s
re gu
high li
ko sten</w>
ch ance</w>
begr enz
b is
gratu lieren</w>
u ß
k ungen</w>
net work</w>
sensi tive</w>
char ac
t ac
erhö hen</w>
kl eine</w>
9 6</w>
A ra
b ed</w>
govern ance</w>
serv ation</w>
weit en</w>
ver rin
Lis te</w>
unter breit
Partn er</w>
O sten</w>
ch em
s ou
ä d
her z
Sch lü
Tag ung</w>
Proc edure</w>
administr ation</w>
Be fu
Doku ment</w>
Wh y</w>
S ou
gi es</w>
Wil len</w>
fail ure</w>
mehr ere</w>
deal t</w>
Bot schaft</w>
Empfeh lung</w>
Maß nahme</w>
ver teidi
pen al
appe ar</w>
erneu er
Ein k
mechan ism</w>
2 1</w>
führ ungen</w>
ein verstanden</w>
get ting</w>
gh ting</w>
mitt l
Rom ania</w>
war ten</w>
auth or
T un
enorm ous</w>
wol lte</w>
agen cies</w>
Pe ti
se ek</w>
p ap
fi z
bu re
Regierungs konferenz</w>
Er hö
2 4</w>
str en
Ital ien</w>
ge m</w>
ein erseits</w>
construc tive</w>
erklär en</w>
K lar
rie ben</w>
verb unden</w>
prin zi
H auses</w>
posi tions</w>
j e</w>
he al
es ischen</w>
Grün de</w>
Pap er</w>
parlia ments</w>
gen e
ver wendet</w>
me th
Itali an</w>
a kt</w>
occ up
am bi
stand ard</w>
wet tbewer
Über prüfung</w>
La dies</w>
konkre ten</w>
A ktionen</w>
address ed</w>
ah ead</w>
en h
correc t</w>
dischar ge</w>
beteili gt</w>
frau d</w>
Heraus forderung</w>
& #
bei de</w>
o de</w>
&# 9
r un
Tra de</w>
O s</w>
L am
inter ven
Bes or
K ing
l ation</w>
impro vement</w>
Bo s
ö k
M ol
institu tion</w>
p utting</w>
fre u
i cial</w>
j em
Jus ti
tar gets</w>
re ply</w>
aussch uß</w>
5 00</w>
ges eh
rech tlichen</w>
man aged</w>
gemein sam
i k
Zi ff
be zogen</w>
Plen um</w>
immedi ately</w>
re p
jün gsten</w>
O k
le istung</w>
akzep tab
de ep
n ennen</w>
oblig ations</w>
as h
un ge
betra chtet</w>
t em
hervor heben</w>
j ur
co l</w>
stoff e</w>
Verän derungen</w>
g ruppe</w>
ö konom
Feh ler</w>
ein geführt</w>
mand ate</w>
Kan di
P at
S ach
ander erseits</w>
bo ard</w>
y c
well -
. 00</w>
ü ben</w>
199 5</w>
ver ehrte</w>
te m</w>
e ten</w>
Char ter</w>
wahr scheinlich</w>
Hö he</w>
in t</w>
chan ged</w>
w at
contain s</w>
k la
aus drücklich</w>
mög liche</w>
Völ k
b illi
l us
statt finden</w>
un able</w>
op h
eh m
el im
person s</w>
simp le</w>
größ te</w>
abgel eh
Krie g</w>
meth od</w>
ar ri
voll ständig</w>
pl ant</w>
sat lan
Pri me</w>
ge zogen</w>
um welt
Ide e</w>
rech ts</w>
t ut</w>
Vorsch lägen</w>
h eren</w>
B asi
neu </w>
co her
King dom</w>
bu ch</w>
Mi ddle</w>
Produ ktion</w>
w it
Komm unik
pro spec
consul tation</w>
un zu
i ed</w>
Ent last
ut ter
N ation
posi tiven</w>
He alth</w>
Bar cel
Barcel on
re solutions</w>
main ly</w>
decisi on-
briti schen</w>
Völ ker</w>
Erhö hung</w>
cho ice</w>
f ish</w>
glob alen</w>
ul tim
r ying</w>
W asser
Fest legung</w>
ter en</w>
mer ely</w>
B ro
é </w>
betre ffen</w>
lo g
B y</w>
au ßer</w>
Ver mitt
We ge</w>
War um</w>
pe op
Agen cy</w>
Sub sidiar
alis ten</w>
dra mati
D aten
ent sch
vi ce</w>
mechanis ms</w>
t äu
fü gen</w>
ha ft</w>
tra gs</w>
mu tual</w>
Verhand lungs
eas y</w>
führ ten</w>
ti ges</w>
er ör
ep ing</w>
ton om
u ten</w>
J etzt</w>
Flücht lin
rejec ted</w>
ed oms</w>
Cha m
entr e</w>
schie de</w>
ti </w>
deb ates</w>
zu dem</w>
Strate gy</w>
Entwick lungen</w>
Ge währ
traff icking</w>
om en
An forderungen</w>
ific ation</w>
H el
es tim
E ven</w>
ur ance</w>
1 6
be haup
f ec
spä ter</w>
Span ien</w>
en jo
Amend ments</w>
zusätz liche</w>
a war
mü s
fun c
un t
er griffen</w>
Aus bildung</w>
regel n</w>
Re fer
advan ta
De fin
thous ands</w>
erfolgre ich</w>
W unsch</w>
I st</w>
9 0</w>
P ub
gen ü
gesch ieht</w>
SM Es</w>
ati sti
lea ders</w>
Drit tens</w>
Stand ards</w>
un sten</w>
he bung</w>
com pla
lo st</w>
Ber ücksichti
K riti
S a
se em</w>
Vorsch lags</w>
an ten</w>
ten d</w>
p ien</w>
politi sch</w>
g ruppen</w>
Oc tober</w>
continu ing</w>
p an
disast er</w>
be zug</w>
An sch
fe ar</w>
rah men</w>
substan tial</w>
on d
M u
be ziehung</w>
Turk ish</w>
ed on
Nu tzen</w>
tz dem</w>
so ver
comple x</w>
it alien
persön lich</w>
Fäl le</w>
seit ens</w>
Cham ber</w>
Fern er</w>
Politi ken</w>
ge gangen</w>
I h
exerc ise</w>
technologi es</w>
Syst ems</w>
A S
ec tion</w>
Konzep t</w>
resol ve</w>
b ab
ad ver
bür ger
wichti ges</w>
str ö
t old</w>
fig ures</w>
wor ked</w>
T ab
flexi ble</w>
Ap plause</w>
ausreich end</w>
Le g
vot es</w>
Transp ort</w>
mög lichkeiten</w>
Diskus sionen</w>
ter e</w>
h om
y er</w>
Ho ch
Christi an</w>
itä tsp
im possible</w>
zeu ge</w>
d ele
Re alität</w>
un kten</w>
E S
abgeleh nt</w>
Klimawand el</w>
t ob
te es</w>
pl ying</w>
An zahl</w>
nat ur
Vor teile</w>
f eld</w>
st atis
lo sen</w>
inclu des</w>
d t</w>
besser en</w>
Kon ta
201 1</w>
lin ked</w>
chil d</w>
Justi z</w>
Ver träge</w>
k aum</w>
Verb rechen</w>
ob ser
strate gie</w>
Hoff nung</w>
2 3</w>
a ci
c ted</w>
val uation</w>
ab sichti
guarante es</w>
pay ments</w>
indepen dence</w>
bil den</w>
qu e</w>
K rä
W ert</w>
Russi an</w>
B ra
ander es</w>
speak ers</w>
Sit z
F inn
Berücksichti gung</w>
evi dence</w>
ge geben
Garan ti
per fec
ass er</w>
In halt</w>
sti e
Rech nung</w>
p al
re ck
sub sidiar
hän gt</w>
ö pf
ent wurf</w>
2 2</w>
el ement</w>
Ein ige</w>
M any</w>
PP E-
zweifel los</w>
geeig ne
Ok tober</w>
vor geseh
sec ure</w>
grund sätz
in come</w>
Wah l</w>
An liegen</w>
renew able</w>
bring ing</w>
R a
ri ge</w>
subsidiar ity</w>
Ge w
so for
K rimin
t led</w>
g n</w>
E isen
A m</w>
h or
no on</w>
hoh e</w>
Ein druck</w>
l ate</w>
behör den</w>
Jap an</w>
bi a</w>
Überzeu gung</w>
gei zi
zufrie den</w>
fin ance</w>
inten tion</w>
ließ en</w>
sel ben</w>
gr enzen</w>
degre e</w>
gen des</w>
Bes onder
leg ungen</w>
Char ta</w>
Au di
Aus führungen</w>
Rechn ungsh
con ven
wish es</w>
ate ful</w>
Euro pol</w>
Afri ka</w>
ko ordin
zu legen</w>
Frem den
atti tude</w>
Al tern
promo tion</w>
M as
Medi en</w>
tot ally</w>
benö tigen</w>
erfol gen</w>
tn isse</w>
K MU</w>
Unabhängi gkeit</w>
har m
employ ed</w>
repe at</w>
traff ic</w>
bur den</w>
co -
c e
bure auc
off icial</w>
dan ger</w>
ehr geizi
g yp
N ord
elec tion</w>
mo bil
form u
bereit et</w>
des ire</w>
n un
si gn</w>
Eink lang</w>
Ver stän
inter ess
sch ung</w>
über wach
z z
angem essen</w>
ge halten</w>
ev entu
H ause</w>
an geb
Kin der
peop les</w>
recommen dation</w>
s ehe</w>
Pf licht</w>
conci liation</w>
Ta gen</w>
Arbeitsplä tzen</w>
letz ungen</w>
allgem eine</w>
ak tiv</w>
unterschied lichen</w>
wor ks</w>
1 8
A K
situ ations</w>
tre aty</w>
pl en
econom ies</w>
t as
Kin dern</w>
enn t</w>
reason able</w>
n ä
gew isse</w>
ic s</w>
p unkte</w>
Gel d
sol cher</w>
t ürk
verabschie det</w>
den noch</w>
Jahr hunder
cons istent</w>
vor legen</w>
bes or
J a</w>
R ent
expres sion</w>
D on
schwieri gen</w>
territ ory</w>
Stru c
pub l
Al le</w>
p assung</w>
aff airs</w>
F äh
member ship</w>
Eisen bah
control s</w>
organ i
Bemerk ungen</w>
qu anti
Sin n</w>
o d
gr ateful</w>
Beisp iel
eh em
we ak
Pro t
exten d</w>
fail ed</w>
bek ann
re d
Kon sen
dic t
in stance</w>
sup ports</w>
ob vious</w>
wes halb</w>
gew and
L A
Verbrauch er
j ahr</w>
actu al</w>
an wes
Pak istan</w>
aus gesetzt</w>
op posed</w>
au shal
famili es</w>
kom pli
n ieder
ern st</w>
be zieht</w>
S eit</w>
Struc tural</w>
E L</w>
emplo ye
wach sen
yp rus</w>
C yprus</w>
off ici
weiter er</w>
bekämpf en</w>
Voraus setzungen</w>
D ann</w>
län e</w>
Rech ts</w>
fac ed</w>
Ein beziehung</w>
Re gu
Thir dly</w>
Isra el
exis tence</w>
invol vement</w>
St re
Mon ate</w>
st ac
umfassen de</w>
L ast
fre und
off ice</w>
An spruch</w>
geo graph
Bi o
ä fen</w>
s eh
Fre iheiten</w>
sequ ently</w>
ex plan
bel an
Ag ricul
industri e</w>
Hinter grund</w>
Ob wohl</w>
g keiten</w>
ger en</w>
su cht</w>
Mon etary</w>
Einwander ung</w>
mi gration</w>
high light</w>
viel mehr</w>
organis ationen</w>
fre i</w>
ub a</w>
An ti
Ber at
Kriti k</w>
n s</w>
inten d</w>
decision- making</w>
for th
ent gegen
Fun ds</w>
politi ci
reagi eren</w>
Priv at
invol ving</w>
immedi ate</w>
Rechts grundlage</w>
so und</w>
Verfass ungs
origin al</w>
mo di
si des</w>
blo ck
I N
ss es</w>
re le
N ew</w>
k a
F o
P act</w>
ob stac
betra chten</w>
judi cial</w>
ber ich
intel li
ari ly</w>
tal ks</w>
Ihr en</w>
tour ism</w>
o .</w>
aufge fordert</w>
Entwicklungs ländern</w>
substan ces</w>
di g
dra f
weap ons</w>
aus sprechen</w>
dru gs</w>
recogn ised</w>
gan gs</w>
happen ing</w>
ru n</w>
gesund heit</w>
aus führ
di g</w>
Tre ffen</w>
rä f
Flexibil ität</w>
Region al
ran ge</w>
An passung</w>
ec k
Afri can</w>
expec ted</w>
ad ly</w>
see king</w>
be absichti
be handeln</w>
con soli
G eh
F er
r uss
steu er
Verbrauch ersch
Z e
Ver bot</w>
plen ary</w>
f ying</w>
techn ische</w>
E G</w>
Zu dem</w>
tru ly</w>
A 5-0
gran ted</w>
Gesam t
adop ting</w>
Zy per
Ques tion</w>
re spek
great est</w>
Mi o.</w>
Kon sequ
in e
Ab sicht</w>
Eff izi
voll kommen</w>
besonder en</w>
commit tees</w>
akzeptab el</w>
mit tag</w>
ge fördert</w>
Minder heiten</w>
H i
Um fang</w>
go al</w>
Be obach
au er</w>
- up</w>
sp ent</w>
mon th</w>
trav el</w>
3 5</w>
appe al</w>
Er d
je tz
protec ting</w>
Basi s</w>
se a</w>
No s</w>
mo dern
Ziff er</w>
under min
Regier ung
inter nationaler</w>
nation s</w>
9 9</w>
sp re
Mitglie dern</w>
Acc ord
bestä tigt</w>
em bly</w>
vol len</w>
kom ple
appro val</w>
Entschei dungs
da cht</w>
auff or
Politi k
lik ely</w>
le bt</w>
fäl len</w>
er gän
reich ung</w>
samm lung</w>
kun fts
w .</w>
zug unsten</w>
er ungen</w>
proc eed
k bar</w>
bek räf
b ad</w>
Hin dern
kein erlei</w>
ein ander
Bemerk ung</w>
kulturel len</w>
resol ved</w>
grundle genden</w>
bin ding</w>
subsi dies</w>
zügi gkeit</w>
glob alisation</w>
if y</w>
fre ie</w>
Schluss folgerungen</w>
Pol and</w>
follow ed</w>
anerk annt</w>
at z
s ä
pen sion</w>
Ma astr
suff ering</w>
gew ö
Am eri
inter esting</w>
l auf</w>
Er wä
Besor gnis</w>
us w.</w>
erwä hn
di gt</w>
saf e</w>
S weden</w>
com par
off izi
ass ure</w>
Ereign isse</w>
tur ing</w>
sp rü
Ju ly</w>
Zw eck</w>
spiel t</w>
def end</w>
Wachst um
gn issen</w>
min orities</w>
Gerichtsh of</w>
dise ase</w>
Kon sul
ameri kanischen</w>
spra chen</w>
star ting</w>
Unter schiede</w>
compe tence</w>
meet ings</w>
gest alten</w>
wesent liche</w>
at tra
mit einander</w>
bei zu
Proble ms</w>
L ie
um zusetzen</w>
region ale</w>
Prü fung</w>
ra di
Lissab on-
credi t</w>
wettbewer bs
e valuation</w>
Pub lic</w>
ü b
Rumän ien</w>
Ak te
R edu
All gem
UN -
stell ungen</w>
näch ste</w>
r ing
Mär kte</w>
h ilfe</w>
Kolleg in</w>
f are</w>
ver lei
Kl ein
se ts</w>
lä ss
belan gt</w>
conduc t</w>
as s</w>
un eingeschrän
ap poin
sha red</w>
fish er
expla in</w>
fe der
ung sin
geleit et</w>
A R
Dro gen
flo or</w>
Währ end</w>
Hoh en</w>
wach st
Kontrol l
care fully</w>
wil li
ex port</w>
P lan
No t</w>
ar d
E mp
tig keiten</w>
design ed</w>
Dien ste</w>
sp ace</w>
fähi g</w>
erforder t</w>
Re de
ar ms</w>
g rie
y n
critic ism</w>
pro je
vi er
Au gen
G ruppen</w>
e chte</w>
Sw ed
isti sche</w>
Vor aussch
fri ed
t ack
re ject</w>
Stell ung</w>
Ver rin
dr än
bilater al</w>
comp ly</w>
ch s
dar aus</w>
mo bility</w>
säm tliche</w>
Entwicklungs länder</w>
tack le</w>
zu ständigen</w>
zu lassen</w>
propos ing</w>
Besch lüsse</w>
äuß ern</w>
an nehmen</w>
Swed ish</w>
zahl reichen</w>
pollu tion</w>
gr ant</w>
kti ken</w>
Pol en</w>
grenz ung</w>
Ju li</w>
Verstän dnis</w>
Besch luss</w>
or en</w>
bekämpf ung</w>
tiv ität</w>
größ eren</w>
p ul
contin ues</w>
an belangt</w>
W al
ich erung</w>
2 6</w>
th ereby</w>
detail ed</w>
ser ies</w>
al ities</w>
Re form
Gesetz </w>
S im
Des wegen</w>
rit t
ro und</w>
invol ve</w>
a ver
bedau er
Reak tion</w>
Dienstleist ungs
Arbeits markt</w>
Technologi en</w>
ab geschlossen</w>
lan gt</w>
akzep tiert</w>
richti gen</w>
G az
f ly</w>
verstär kt</w>
comp liance</w>
Viel e</w>
tran satlan
n ation</w>
In v
re form
ben s</w>
ch e
commun ities</w>
presen ce</w>
min ority</w>
Gesetz e</w>
gestell ten</w>
Geor gi
ru fen</w>
c at
be träch
tax ation</w>
ju st
jewei ligen</w>
E astern</w>
K ü
Verrin gerung</w>
G rü
f lu
eini g</w>
demo kraten</w>
elec tri
nachhal tigen</w>
LA F</w>
pop ul
gelan gen</w>
win den</w>
tä tig</w>
E ur
low er</w>
Balk ans</w>
natur ally</w>
harmon isation</w>
c ra
Er war
dela y</w>
minis ters</w>
system ati
Ener gy</w>
es sive</w>
hear t</w>
ge arbeitet</w>
är m
uni vers
krä fte</w>
lu ß
Vorbereit ung</w>
P hase</w>
gro unds</w>
äuß ert</w>
perman ent</w>
Vor gehen</w>
wi der</w>
behör de</w>
oh n
D en</w>
por ary</w>
Res ol
N ich
Voraus setzung</w>
de te</w>
is tic</w>
certain ty</w>
schw ed
Außen politik</w>
ad voc
lei den</w>
Pre is</w>
Industri e
einheit lichen</w>
empha sis</w>
zu letzt</w>
plan ning</w>
Barcelon a</w>
Ju gen
Kom peten
E A
Nor th</w>
ro r</w>
W hile</w>
nü tz
man gel
zu rü
aktu ellen</w>
L auf
Pre is
def ic
in spec
k tron
vo ice</w>
Audi tors</w>
innov ative</w>
dou b
angemessen e</w>
bar er</w>
Un gleich
p on
wer k
qu ote</w>
justi fied</w>
Ar z
unabhängi g</w>
Un ter</w>
Nor men</w>
B lick</w>
be an
ordin ary</w>
Vereinbar ungen</w>
Beh in
consu mption</w>
ge ber</w>
st öß
Kontrol len</w>
Vor sitz</w>
betreff enden</w>
V ic
Entlast ung</w>
cla im
ho ch</w>
Bud gets</w>
unterschied liche</w>
any one</w>
la w
E st
di vi
der ten</w>
ungs verfahren</w>
t wo
pub lic
fu hr
Einf luss</w>
ver lor
An teil</w>
vehic les</w>
L at
S ig
th or
Fun ktion
zurü ck</w>
k atastrop
bedeu ten</w>
200 </w>
caus es</w>
M ac
Strate gien</w>
Se a</w>
vor her
Effizi enz</w>
Überein stimmung</w>
or al</w>
s mo
lim its</w>
füh l</w>
R ati
or ation</w>
An la
in a</w>
bar ri
sup ple
terror ist</w>
wor th</w>
rit ann
b ir
Defin ition</w>
tar get</w>
ge ändert</w>
kein es
a .</w>
ga in</w>
Mis s
T ele
fern er</w>
materi al</w>
begrü ßt</w>
op tion</w>
impro vements</w>
G ü
ven tionen</w>
P unkten</w>
credi bility</w>
t t
dien ste</w>
ta il
Be tru
wa it</w>
wes en</w>
gesch ü
P ati
ong st</w>
am ongst</w>
defin ed</w>
auf zunehmen</w>
lo cation</w>
Kul tur
Z oll
funda ment
7 -
pr o</w>
M oment</w>
sat z
R and
absol ute</w>
b ritann
gemein schaftlichen</w>
P ot
Wi th
Jah res
spe ed</w>
o therwise</w>
nach dem</w>
C ze
Bil dungs
B as
H al
F rü
Groß britann
deta il</w>
s al
en try</w>
Inter nationalen</w>
experi en
wir kt</w>
Gre ek</w>
aus schließlich</w>
ex ec
f ro
of s</w>
affec t</w>
Kommission sprä
ö der
AK P-
vol unt
ver wal
nied ri
isch en
mar i
campa ign</w>
Konsen s</w>
sign al</w>
entscheiden d</w>
appe ars</w>
is ieren</w>
g as
da n</w>
räu men</w>
läu ft</w>
w and</w>
employe es</w>
er mu
S V</w>
distribu tion</w>
er ous</w>
dest ro
und es
W aff
acc o</w>
sp rech
str on
an genommen
Wes tern</w>
L ehr
ho od</w>
fi k
Analy se</w>
particip ate</w>
religi ous</w>
F an
reit er
Leg isl
h und
lo ss</w>
h ours</w>
es tic</w>
Volks gesundheit</w>
be obach
Frei zügigkeit</w>
ff s</w>
betreff end</w>
o s
trans fer</w>
mis s
Emis sionen</w>
ber eiten</w>
ten dlich</w>
nor mal</w>
dar unter</w>
ag ing</w>
ra il</w>
t al</w>
sat zes</w>
mul tin
Zah len</w>
Schlü ssel
arran gements</w>
f assung</w>
Stra ß
Haushaltsp lan</w>
max imum</w>
re k
charac ter
dau er
monit or</w>
ec ken</w>
komm e</w>
Su ch</w>
oper ating</w>
Stat us</w>
Verteidi gungs
französ ischen</w>
wichti gste</w>
immi grants</w>
an ische</w>
A tom
high -
com bin
Voraussch au</w>
en ess</w>
Entwick l
star ke</w>
sch lim
f elt</w>
vi r
de ad
z in
s ource</w>
weit e</w>
zi elt</w>
N ein</w>
elim in
E hr
wirk lichen</w>
ex tra
tradi tion
ef s</w>
m illi
represent ative</w>
leist ungen</w>
star ted</w>
lau tet</w>
declar ation</w>
ber s</w>
be ein
stra fe</w>
v a</w>
M eines</w>
Famili en</w>
obli gation</w>
T ri
i al</w>
M ein</w>
E N
Con su
af ter
ga ve</w>
a da</w>
Ö ster
pro sper
On ly</w>
ganis ation</w>
langu ages</w>
eingere icht</w>
Gleich gewicht</w>
fa ßt</w>
zep rä
ate ver</w>
transp or
nei ther</w>
N icht</w>
Binnenmark tes</w>
ma g</w>
aus gesprochen</w>
ari es</w>
compens ation</w>
pla yed</w>
S at
ti l
Le ist
i ra
initi al</w>
ob tain</w>
att acks</w>
dien st
yo to</w>
K yoto</w>
ehem ali
grundle gende</w>
außerorden tlich</w>
Be am
ap par
fac tors</w>
Agricul ture</w>
Ele mente</w>
k einer</w>
vorzu legen</w>
W äh
e arch</w>
Res earch</w>
Vi zeprä
fi ghting</w>
Th ose</w>
pal ästinens
fre edoms</w>
Gleich stellung</w>
ne ben</w>
ger ing
men s</w>
go als</w>
sinn voll</w>
Sch weden</w>
gra du
gener ally</w>
be hand
steh e</w>
bes ei
easi er</w>
Viel leicht</w>
G ali
Risi ken</w>
encoura ging</w>
ti ver</w>
Aktionsp lan</w>
poli tics</w>
bud s
v ul
S k
vorgeschla gene</w>
W ür
2 8</w>
verur teilt</w>
sk i</w>
regul atory</w>
T O-
wirtschaf tlicher</w>
lab elling</w>
nat ür
im posed</w>
Y et</w>
7 5</w>
in form</w>
mo ving</w>
gel assen</w>
dom estic</w>
z on
in d
t ment</w>
contribu tions</w>
Bulg aria</w>
nö tig</w>
f oun
rap id</w>
Mit arbeit
M us
übri gens</w>
p .m.</w>
sp ie
respec ted</w>
di gn
staat liche</w>
sto od</w>
fol genden</w>
p ic
il st</w>
Nah en</w>
wh ilst</w>
F ron
ei gen
Red ner</w>
fac tor</w>
at ta
US -
R eligi
be zo
pay ment</w>
Commission ers</w>
sib ly</w>
sen sible</w>
Al so</w>
determin ation</w>
I S</w>
wiederhol en</w>
politici ans</w>
t est</w>
L ab
loy ment</w>
ab stimmen</w>
speak er</w>
notwendi ge</w>
Untersuch ung</w>
profession al</w>
Regi me</w>
pro to
Char ak
vor rangi
b ol
AC P</w>
men ts
O S
constitu tional</w>
Stra ßen
zurück zu
nun mehr</w>
vis i
Chan c
Verein fach
f s</w>
wh ere
m ot
lok alen</w>
CO 2</w>
b ien</w>
wel fare</w>
funktion iert</w>
si vely</w>
Zuständi gkeit</w>
M ad
att le</w>
fre qu
Glau bwürdi
spre che</w>
facilit ate</w>
siden ten</w>
F rom</w>
ver sion</w>
m ier
zusammen arbeiten</w>
cap able</w>
k rie
be we
vor anzu
contin ent</w>
anwes end</w>
f l
fa il</w>
reco very</w>
Bes u
Institu tion</w>
separ ate</w>
fol gende</w>
en for
Ziel en</w>
sch efs</w>
Politi ker</w>
spar tei</w>
Sek toren</w>
b la
neu es</w>
T it
fan gen</w>
wa iting</w>
t un
ra sch</w>
trei ben</w>
Verhäl tnis</w>
ell s</w>
ent sprechen</w>
Mobil ität</w>
k ennen</w>
deli ghted</w>
Soci alist</w>
mari time</w>
equ ally</w>
sp ending</w>
n is</w>
grie ch
de bt</w>
Famili e</w>
interes ted</w>
Aussch ü
ver langen</w>
Sig nal</w>
d nung</w>
t land</w>
Umstän den</w>
er fahren</w>
Un ser</w>
D ut
s -
ein bezogen</w>
geb aut</w>
sp ir
sach en</w>
da ble</w>
Ver such</w>
O m
Sch luss</w>
niem and</w>
wer k</w>
d or
realis tic</w>
W er</w>
in ts</w>
cent ury</w>
ti erung</w>
us h
tob acco</w>
Befu gnisse</w>
B en
einge halten</w>
citiz en</w>
du mp
l a</w>
sor g
continu ed</w>
n icht
e valu
ra il
func tioning</w>
zw ungen</w>
3 0
St o
lass ung</w>
ben e
unter streichen</w>
Verbesser ungen</w>
An merk
ou l
gewö hn
differ ence</w>
nü pf
k en
herz lich</w>
o st
Erfahr ung</w>
ur en</w>
restric tions</w>
cri mes</w>
negoti ating</w>
l enn
s eines</w>
mindes tens</w>
abl es</w>
län ger</w>
y a</w>
inclu sion</w>
N utz
propos es</w>
Mitglied s
begr ün
even ing</w>
teil weise</w>
on eth
oneth eless</w>
staat lichkeit</w>
Bestand teil</w>
Ver k
si ehe</w>
nach drücklich</w>
dem and
Über legungen</w>
i b
exper ts</w>
bemü ht</w>
Ze ichen</w>
ch tigkeit</w>
Cze ch</w>
effec tiveness</w>
4 5</w>
endor se</w>
gen annt</w>
Wirk lichkeit</w>
o ts</w>
H -0
mon o
reach ing</w>
sp ort</w>
conflic ts</w>
ges ell
require ment</w>
O M</w>
be ha
lin k</w>
Bed ro
opin ions</w>
wä ch
Absch affung</w>
mo dern</w>
Glaubwürdi gkeit</w>
vi ew
fi l</w>
Be weis</w>
refer endum</w>
be wäl
sex ual</w>
tradi tional</w>
y ers</w>
u si
Chr ist
ver sorgung</w>
an den</w>
g ä
Z er
Antwor ten</w>
comp lic
umfassen den</w>
Eben so</w>
wirk sam</w>
help ing</w>
genann te</w>
Berichterstat ters</w>
verb reit
Zivil gesellschaft</w>
stie g</w>
Sor gen</w>
zeh n
proble mati
vul ner
ver lieren</w>
i ans</w>
er ter</w>
erfol gt</w>
er geben</w>
An rei
Ver gleich</w>
ther lands</w>
ru hi
forth coming</w>
Stra s
po wer
kürz lich</w>
im pose</w>
illeg alen</w>
can c
all er
sol ve</w>
buds man</w>
St ellen</w>
Ne therlands</w>
tra ding</w>
Vic e-
appropri ations</w>
er öff
Nieder lan
Le gal</w>
Zentral bank</w>
sequ ent</w>
be u
verkehr s</w>
pre fer
Verteidi gung</w>
betre i
I C
ethn ic</w>
contra dic
groß es</w>
erheb liche</w>
guarante ed</w>
tas ks</w>
d opp
protec ted</w>
Stras bourg</w>
mehr eren</w>
G lück
Auf bau</w>
ausgezeichne ten</w>
ed ly</w>
refle ct</w>
ess ing</w>
writ ten</w>
we g
A 4-0
For men</w>
rech tliche</w>
fre ch
f is
B SE</w>
St ability</w>
An n
C roati
person ally</w>
will ing</w>
avo i
fi f
su m</w>
ens wert</w>
c au
dise ases</w>
em bar
bemü hen</w>
An griff</w>
5 -00
p hase</w>
gel tenden</w>
gr ations
stell er</w>
invest ments</w>
num erous</w>
k i</w>
C openhagen</w>
Bed ar
Gemein same</w>
ph y
kämpf en</w>
exam ine</w>
l le</w>
dra wing</w>
verstär ken</w>
allow ing</w>
D P</w>
den e</w>
depen dent</w>
3 1</w>
Ti ere</w>
2 9</w>
Erzeu gnisse</w>
entscheiden der</w>
pur poses</w>
wirk sam
Portu gu
rä ge</w>
Krank heiten</w>
le hnung</w>
t ou
le bens
dies el
legitim ate</w>
sch lägt</w>
ach teili
w om
au di
alis tischen</w>
Prinzi pien</w>
icher heit</w>
oper ations</w>
fir m</w>
Über gangs
nach zu
gla d</w>
volunt ary</w>
ma ß</w>
ör per
Bal tic</w>
ir y</w>
Vor haben</w>
Organ e</w>
exis ts</w>
2 -
er scheint</w>
entwick lung</w>
per form
urop ä
fizi ert</w>
k am</w>
klar en</w>
dom in
verfü gt</w>
ent stehen</w>
fo ot
sk il
V an</w>
Ü bri
go t</w>
L ast</w>
vis a</w>
tre ated</w>
be ziehungen</w>
ar ding</w>
spezif ischen</w>
Austri a</w>
m ann</w>
Gesprä che</w>
inform iert</w>
Katastrop he</w>
cust oms</w>
ke eping</w>
Großbritann ien</w>
is te</w>
Parla ments
Arz nei
u de</w>
Völk er
let ter</w>
wel chen</w>
Be tra
st am
Bos n
ch air
einzi gen</w>
associ ated</w>
serv ations</w>
F ish
ehr ten</w>
Comm un
verantwor tungs
Portugu ese</w>
ver sichern</w>
ch mal</w>
g one</w>
A ction</w>
allgem ein</w>
disast ers</w>
con trib
Krimin alität</w>
ex emp
Famili en
herr scht</w>
ver hand
Accord ing</w>
geh ens
ver langt</w>
B lo
weiter es</w>
occa sions</w>
E I
abl ing</w>
g ünsti
Fra mework</w>
ß te</w>
sp r
an statt</w>
bestimm t</w>
ver einf
tra ge
Mi ß
äum t</w>
bes te</w>
Me er
bed ro
sei en</w>
k ro
en zi
hervor gehoben</w>
Gen ehm
gel y</w>
pla ces</w>
ma ch
poten zi
Tra g
Luxem bourg</w>
zw an
techn ological</w>
offici als</w>
Sch u
Mark et</w>
R ec
set t
si l
comp ati
I denti
kno ws</w>
peac eful</w>
geh and
demonstr ated</w>
c ou
wor se</w>
condi tion</w>
ge prüft</w>
Gedan ken</w>
profi tieren</w>
milli ons</w>
Konfli kt</w>
lear n</w>
att ack</w>
hal ten
demonstr ate</w>
ch ec
K am
gent ly</w>
y es</w>
ell ed</w>
safegu ard</w>
C AP</w>
Hand eln</w>
ck ing</w>
C ol
di en</w>
ban ks</w>
bestimm ter</w>
passen gers</w>
vis it</w>
ach es</w>
ger u
en de
Parla mente</w>
re marks</w>
Sy ri
Ein richtungen</w>
oper ators</w>
hol ding</w>
be findet</w>
verlor en</w>
zah lt</w>
Finan cial</w>
W affen</w>
gest at
schn it
ta k
A no
be wegen</w>
ver dient</w>
beru f
dis krimin
Risi ko</w>
bab we</w>
b it</w>
vorlie gende</w>
pas sen</w>
er läu
ge is
tac kl
ges p
jetz igen</w>
si erung</w>
bene fi
9 5</w>
th and
Li by
Vertra gs
Z eiten</w>
Inv est
h ous
Ano ther</w>
o w
alloc ated</w>
d ritten</w>
program ms</w>
contain ed</w>
ach tung</w>
wen igen</w>
ch sel
I F
tor al</w>
nä her</w>
EU- Mitgliedstaaten</w>
ou b
rich tet</w>
Ber lin</w>
wel cher</w>
Män nern</w>
Erwar tungen</w>
i ght</w>
vol ler</w>
an schließen</w>
humanitär e</w>
m äch
tri ed</w>
geb ühr
fal sch</w>
Flüchtlin ge</w>
Umwelt fragen</w>
ele ktron
Or dnung</w>
Maastr icht</w>
appro ve</w>
W omen</w>
enti tled</w>
wa k
pass ed</w>
c ar</w>
des tru
tig ten</w>
re ment</w>
feh lt</w>
Z ur</w>
ne ver
schä tzung</w>
Wel che</w>
ben den</w>
elec tron
Om budsman</w>
ig es</w>
den kt</w>
b a
man age</w>
Vereinfach ung</w>
entscheiden de</w>
Bürger beauftra
gri ffe</w>
ori enti
ultim ately</w>
Last ly</w>
ge äußert</w>
Gesch lech
Eisenbah n
individu als</w>
dustri e</w>
institution elle</w>
exam ples</w>
lin ed</w>
chan ging</w>
op pos
gra f
über ein</w>
CO M</w>
hän gen</w>
beteili gen</w>
Regierung schefs</w>
vol ution</w>
verlei hen</w>
letz tendlich</w>
conclu ded</w>
primar ily</w>
durch zuführen</w>
ab gestimmt</w>
ig u
vis ed</w>
zer stör
Mit entschei
cor ruption</w>
k ü
stric t</w>
promis es</w>
s icht
amoun ts</w>
g an</w>
über nommen</w>
be trie
D E-Fraktion</w>
sp anischen</w>
m om
Kohäsions politik</w>
finanzi ert</w>
Ab lehnung</w>
en han
ign or
spar tn
Uni vers
Indi a</w>
ator en</w>
ei gn
l isten
sä tzen</w>
Rechts staatlichkeit</w>
re alise</w>
Pra ktiken</w>
haup ts
Syst eme</w>
Chin ese</w>
Wes ent
pa th</w>
A sh
b ase</w>
Tre aties</w>
invol ves</w>
F ischer</w>
plan ned</w>
civi li
B ec
ordn ungen</w>
201 2</w>
är kt</w>
Wei ß
Wirtschafts wachst
awar eness</w>
autom ati
Mark tes</w>
si ze</w>
c ke</w>
ativ ely</w>
sab kommen</w>
ffent lich</w>
ho ffentlich</w>
H ier
sugges t</w>
im ports</w>
Konsequ enzen</w>
fin e</w>
kra ft</w>
n issen</w>
Mo dell</w>
M ul
far ming</w>
z en
sch eme</w>
prakti sch</w>
over come</w>
Sicherheits politik</w>
constitu tion</w>
cht fer
vergen ce</w>
Febru ary</w>
w ann</w>
B ru
viol ations</w>
mensch lichen</w>
auffor dern</w>
M ü
ver öffent
B rit
An fragen</w>
dign ity</w>
Todes strafe</w>
kon struk
tats äch
w est
sub stance</w>
lau t</w>
vorgeseh enen</w>
O ber
s li
tru th</w>
dan kbar</w>
ful fil
aver age</w>
Waff en
A T</w>
il l
sorg fäl
do w</w>
wo durch</w>
Des pite</w>
I P</w>
kl ein
tur ned</w>
wirk ung</w>
Ab end</w>
bür ger</w>
n ungen</w>
inform ieren</w>
M au
verb un
hand s</w>
Män ner</w>
O l
kontrol le</w>
tä t</w>
struktur en</w>
exten ded</w>
Mittel punkt</w>
Straß burg</w>
Berich ten</w>
P as
no ted</w>
ur ch</w>
ben e</w>
proz esses</w>
NG Os</w>
represent ed</w>
ger ia</w>
spezi ell</w>
emer gency</w>
Le ute</w>
Gi ven</w>
re vision</w>
ra c
m ur
s se
g utes</w>
vor genommen</w>
l ern</w>
e uro
wor fen</w>
führ te</w>
aus ende</w>
il lu
erheb lich</w>
Wor t
Vice- President</w>
Slo v
flexi b
st able</w>
tax es</w>
co operate</w>
Febru ar</w>
Produ ktions
p ak
verteidi gen</w>
S om
ut ing</w>
m al
tem porary</w>
ab gesch
Ih rem</w>
zweit ens</w>
regel mäß
form ul
Th e
ab sch
vor ange
Ni veau</w>
never theless</w>
wh atever</w>
lich em</w>
gew innen</w>
G ere
x im
fest zulegen</w>
Le tz
f ach</w>
in o</w>
L ond
un less</w>
proc eed</w>
garan tieren</w>
2 5
M ut</w>
Pak et</w>
vulner able</w>
D A</w>
s em
aus gehen</w>
De fiz
Per haps</w>
stre ben</w>
Wider spruch</w>
den s</w>
decisi ve</w>
Bul gar
Dialo gs</w>
ver se</w>
B 5-0
ri ft</w>
fir mly</w>
quali fizi
erwar tet</w>
Gewähr leistung</w>
j ah
D ol
effizi enz</w>
r ul
lä ßt</w>
Zusammen halt</w>
de ckt</w>
niem als</w>
s ü
dis tor
D ub
prec e
Verbrauchersch utz</w>
bere iche</w>
und oub
sozi aler</w>
confir m</w>
b ig
qu alität</w>
ph en
ab sur
fan gre
Ass embly</w>
zäh len</w>
reques ted</w>
gewand t</w>
some what</w>
At lan
ter ing</w>
P latz</w>
Hi gh</w>
t ten</w>
zeu gen</w>
mas sive</w>
B undes
heu tige</w>
St äd
As sozi
ur teilung</w>
ver trau
einheit liche</w>
un fair</w>
son st</w>
ish ing</w>
ü bt</w>
at ure</w>
An hör
ri gi
Ö l
über all</w>
f f</w>
B la
statis tics</w>
An wen
i ens</w>
lat ter</w>
inten sive</w>
bru ch</w>
brie f</w>
fu el</w>
Ex per
Arbeit en</w>
lossen heit</w>
Tro tz</w>
S timm
colle ctive</w>
consider ing</w>
rech ts
cl ause</w>
Be griff</w>
ar a</w>
happ ens</w>
wen ige</w>
secon dly</w>
Pro f
wirk same</w>
n el</w>
p ment</w>
199 4</w>
ge zwungen</w>
gener ation</w>
Redu zierung</w>
D em</w>
Proz esses</w>
k ers</w>
Währungs union</w>
ment ari
zu gleich</w>
off ers</w>
Lond on</w>
ernsthaf t</w>
obstac les</w>
beschäf tigen</w>
par all
Dut ch</w>
Kre di
Wel thand
penal ty</w>
H ere</w>
en su
imp lic
unzu reich
im pression</w>
d ates</w>
ol z</w>
um fangre
sol ches</w>
ss ed</w>
K y
M at
produc tive</w>
ple ase</w>
quot as</w>
bei getragen</w>
ap pointed</w>
l ös
ch st
For mu
Nat ur</w>
allow s</w>
industri es</w>
genau so</w>
j ungen</w>
letz tlich</w>
ein stimm
proper ty</w>
än den</w>
mer ken</w>
cour t</w>
fisher men</w>
Res pe
Her zen</w>
ha fte</w>
prepar ing</w>
derar tige</w>
An gaben</w>
verfü g
Uni ons
gewähr t</w>
stan tly</w>
breit ung</w>
pil lar</w>
C 5-0
Dien st</w>
erleich tern</w>
D o</w>
be ten</w>
Fish eries</w>
H am
li ere</w>
exc essive</w>
Mal ta</w>
beschäf tigt</w>
einzu führen</w>
k es
c tual</w>
Wohl stand</w>
St off
ri d</w>
Struktur en</w>
Bec ause</w>
Grü nen</w>
star ken</w>
Funda mental</w>
Nor di
prevent ing</w>
ier ungen</w>
verrin gern</w>
pro ve</w>
konkre t</w>
Tei len</w>
gebie t</w>
fe el
I D
le un
mas s</w>
j enen</w>
ab use</w>
sur pris
M ann</w>
g ol
Schi ff
geschü tzt</w>
prep are</w>
prec ise</w>
län dliche</w>
accoun ts</w>
tin i</w>
en des</w>
e chten</w>
introduc ing</w>
Hei mat
da mals</w>
P l
comp ared</w>
ha ften</w>
ge -
detail s</w>
spo ken</w>
explo itation</w>
Am ts
spezif ische</w>
O hne</w>
bel e
Bulgar ien</w>
haupts ächlich</w>
Re is
agen cy</w>
ur s
Tra di
dr ing
beg onnen</w>
Öster reich</w>
fi el
ins urance</w>
re struc
erwä hnen</w>
announ ced</w>
ursprün glichen</w>
I V</w>
rel ates</w>
sto cks</w>
electron ic</w>
app el
t op</w>
pas s</w>
du ties</w>
coura ge</w>
democ rati
Th en</w>
high est</w>
gestat tet</w>
an gehö
undoub tedly</w>
den falls</w>
ec kt</w>
Minister prä
ter ed</w>
Gegen satz</w>
H U</w>
vorsch läge</w>
par t-
Ge fahren</w>
wissen schaftlichen</w>
be vor
Ko rea</w>
ap plying</w>
er weit
- European</w>
Croati a</w>
sich ts
Plen ar
ur gently</w>
fac ts</w>
Mitglied schaft</w>
Vermitt lungs
ab and
proc esses</w>
fis cal</w>
Infra struktur</w>
wün sch
stan de</w>
bud gets</w>
x ed</w>
eng agi
pos al</w>
Ver zö
verhand lungen</w>
spek tive</w>
Dar um</w>
ler nen</w>
K roati
proceed ings</w>
E P
st or
entsch lossen</w>
es ti
Beru fs
min im
kor re
jäh rigen</w>
wol lten</w>
ne w
oper ational</w>
lat est</w>
zi elen</w>
o k
erhö ht</w>
besor gt</w>
Ent sch
er leben</w>
fin ding</w>
beha vi
ful fil</w>
Mas sen
sofor t</w>
con stantly</w>
qual it
O LAF</w>
nah m
en det</w>
ff nung</w>
prosper ity</w>
sp h
Außen -</w>
spo ke</w>
B on
er freut</w>
S ie
kon fron
priv aten</w>
appreci ate</w>
vorsch lagen</w>
confir med</w>
ra el
expec tations</w>
occa sion</w>
K ür
Y u
stron ger</w>
Deb atten</w>
pa ar</w>
vor gelegten</w>
Stu die</w>
determin ed</w>
unter zeichnet</w>
zi em
ent fern
exclu sion</w>
pursu e</w>
geru fen</w>
D ring
sp unkt</w>
Zah lungs
tim et
Gel der</w>
Mand at</w>
t te</w>
co decision</w>
tel e
mö gen</w>
is rael
Sch wei
Inter governmental</w>
c ard</w>
Al liance</w>
won der</w>
gu ter</w>
Volk spartei</w>
Beispiel e</w>
Hand els</w>
e te</w>
europä isches</w>
s sive</w>
phen omen
deut schen</w>
über tragen</w>
min utes</w>
pe ti
en tz
descri bed</w>
bro ad
c ent</w>
S af
ban on</w>
d ank</w>
briti sche</w>
f and</w>
adver ti
le ment</w>
dump ing</w>
Mil itär
typ es</w>
empf eh
P atten</w>
sto ffen</w>
ver fahrens</w>
lossen en</w>
rec ord</w>
tn is
argu ments</w>
exten sion</w>
Arbeitneh mern</w>
sch afft</w>
al tet</w>
ci ties</w>
advanta ges</w>
humanitär en</w>
tax pay
ser n</w>
cont act</w>
3 00</w>
gewäh lt</w>
respec tive</w>
fra gt</w>
el te</w>
h ori
en g</w>
S port</w>
Energi ever
kan ische</w>
bein hal
In sel
Ele ment</w>
inten ds</w>
An sichten</w>
Pre ise</w>
coordin ated</w>
defin e</w>
gehens weise</w>
Indi en</w>
Consu mer</w>
strate gies</w>
associ ation</w>
histor ic</w>
behand lung</w>
mark et
B ö
en dly</w>
con vergence</w>
läss lich</w>
ch ing</w>
fron t</w>
i en
barri ers</w>
ab sen
abhängi g</w>
Er forder
Geb äu
stu dies</w>
pro hi
fiel ds</w>
Asi a</w>
sover eign
. 000</w>
b om
fri endly</w>
effek tiv</w>
unmittel bar</w>
Wir kung</w>
Sto ck
ag ue</w>
Entwickl ungsh
b ul
zu vor</w>
too l</w>
J oh
mär kte</w>
M ir</w>
un ruhi
bein gs</w>
j ourn
glob ale</w>
ür en</w>
we gs</w>
sicher ungs
f ein
contra cts</w>
i j
or t
mittl eren</w>
lin ks</w>
sor ganisation</w>
Wahr heit</w>
Balk an</w>
sa w</w>
Kon vent</w>
clar ify</w>
materi als</w>
berich terstat
Kris en
edu c
best and</w>
rech ten</w>
Ma ß</w>
d ritte</w>
ackno wled
un ited</w>
rati fication</w>
om in
M ach
ac ting</w>
schn ell
jähr lich</w>
quali fied</w>
einzu setzen</w>
aus el</w>
ul ture</w>
wieder um</w>
Un gar
al ar
op s</w>
Ar ten</w>
dan ach</w>
mittel t</w>
Ver le
l isten</w>
under stood</w>
wel com
form al</w>
behavi our</w>
is men</w>
welcom ed</w>
publ ished</w>
verkehr s
m un
schi ed</w>
Charak ter</w>
wer ten</w>
m ung</w>
u ßt</w>
gen eh
gest ärkt</w>
k ept</w>
wor l
strengthen ed</w>
por tu
bestä tigen</w>
sp here</w>
ir ischen</w>
fun ction</w>
F ach
Fre ude</w>
an gebracht</w>
Bedar f</w>
Beteili gten</w>
p el
verhin dert</w>
führ ungs
poli tically</w>
S i
einge gangen</w>
mu tzung</w>
schließ t</w>
C am
Re port</w>
über prüfen</w>
är en</w>
brie fly</w>
es ts</w>
den k
follow s</w>
politi sches</w>
wiederhol t</w>
deb ating</w>
equi pment</w>
Be für
b ungen</w>
antwor tet</w>
ad just
lar gely</w>
dies bezüglich</w>
Meer es
Mil lenn
c entre</w>
pla ying</w>
g mati
li ties</w>
te en</w>
Israel i</w>
so eben</w>
regu lar</w>
M ex
sol ange</w>
produ ktion</w>
n en
v ar
Tre ib
ck ung</w>
Selb stverständlich</w>
Stoff e</w>
neh mer</w>
sozi al
ur gency</w>
äl fte</w>
intel le
W est</w>
Nahrungs mittel
G U
Resol ution</w>
en falls</w>
lar gest</w>
Prot ection</w>
Tab ak
coher ent</w>
Yu gosla
Bedürf nisse</w>
he ad
r ich</w>
Be we
Bud get</w>
all zu</w>
re siden
portu gi
Mo d
succ eed</w>
Kommissionsprä sident</w>
gi e
War en</w>
k tur</w>
stärk ere</w>
er zeit</w>
rä um
al ter</w>
be danken</w>
br ings</w>
derzei tige</w>
li ge</w>
parlamentar ischen</w>
Pro zeß</w>
sy ch
ati n</w>
g ust</w>
man chmal</w>
main taining</w>
Investi tions
Constitu tional</w>
Ser bia</w>
schwi er
Di kt
S ar
3 7</w>
konfron tiert</w>
sub mit</w>
B it
Sp iel</w>
sovereign ty</w>
pro ved</w>
territori al</w>
Wirtschaf t
der ship</w>
pro zeß</w>
ans wers</w>
fül lung</w>
it ely</w>
Ti be
pap er</w>
Rati fizierung</w>
amen ding</w>
Ko operation</w>
C he
kurz em</w>
Wür de</w>
schutz es</w>
Emp loyment</w>
Grenz e</w>
f lü
a po
Kor ruption</w>
zusätz lichen</w>
gew issen</w>
electri city</w>
P a
medi zin
ass ess</w>
um setzen</w>
ab ol
Metho de</w>
al t</w>
fro h</w>
prä z
S co
Qu al
ver wenden</w>
illeg ale</w>
kompli zi
Ratsvor sitz
ins ist</w>
bis lang</w>
jun ge</w>
steu er</w>
wirk lichung</w>
L it
ah </w>
Gere chtigkeit</w>
ak tive</w>
Steu ern</w>
strateg ischen</w>
regel ung</w>
Untersuch ungen</w>
eed ed</w>
inter nation
is iert</w>
ziem lich</w>
wer fen</w>
fa i
perfec tly</w>
n a
ren e
super vision</w>
gr ö
em ar
ent täu
ge beten</w>
pri vi
mor al</w>
ri </w>
argu ment</w>
der te</w>
wen ig
Energi en</w>
italien ischen</w>
Wal d
L atin</w>
g ere</w>
sec re
lea dership</w>
ben achteili
se ven</w>
durch führen</w>
Ander erseits</w>
ber n</w>
under taken</w>
beinhal tet</w>
Gegen stand</w>
Vor teil</w>
ta il</w>
G M
S al
ben u
B ürokrati
Bereit stellung</w>
Besch rän
In stead</w>
W asser</w>
Agen turen</w>
ver lassen</w>
in ely</w>
o w</w>
belie ves</w>
verän dert</w>
b es</w>
s hap
comp ul
3 .</w>
pris on
Lebens mittel</w>
don es
GU E</w>
gere ch
me at</w>
Ver heu
Ver wirklichung</w>
fün f
Ins besondere</w>
Sol ana</w>
W TO-
zer r
won ach</w>
se eing</w>
I T
mitg lie
zusammen zu
strö m</w>
Ein schrän
Übri gen</w>
frü her</w>
Poli z
an te</w>
sor y</w>
Sch ä
be unruhi
nehm bar</w>
min ute</w>
A ID
tur ning</w>
unter schei
ti erten</w>
beru ht</w>
multin ation
vorhan den</w>
suff er</w>
k n
erinn ert</w>
vor aus
grö ßer
fest gelegten</w>
an sprechen</w>
Bes ei
Metho den</w>
condem n</w>
plan ts</w>
suffici ently</w>
em m
soli di
tig te</w>
signific antly</w>
produc ing</w>
gel n</w>
e f</w>
Per son</w>
Verheu gen</w>
Wirtschafts politik</w>
us ers</w>
E W
v on
ran g</w>
zi g</w>
off ered</w>
Abstimm ungs
sto ßen</w>
2 .</w>
absen ce</w>
t au
ver stehe</w>
be zü
adv ance</w>
Staats -</w>
Sch aden</w>
prä sen
Sub ject</w>
Ko oper
ein gebracht</w>
H älfte</w>
Re present
Ash ton</w>
al ien</w>
un be
Aus arbeitung</w>
teu erung</w>
G AP</w>
restruc turing</w>
den den</w>
Ver sammlung</w>
des wegen</w>
zu ständig</w>
on going</w>
Ver halten</w>
dec la
Besei tigung</w>
An geb
T age</w>
st opp
identi ty</w>
care ful</w>
P S
In kraft
Au gust</w>
Frü h
signific ance</w>
Wirtschafts krise</w>
dri ving</w>
amen ded</w>
cap it
dis posal</w>
C re
Sta ates</w>
tu m
Teil nahme</w>
medic al</w>
jem and</w>
k amp
lear ning</w>
p le</w>
b ann
länd ischen</w>
transi tion</w>
Energie effizienz</w>
beschrän ken</w>
qu ar
über ein
he av
is ter</w>
Zyper n</w>
H O</w>
acci dents</w>
univers al</w>
af ri
E R
par liament</w>
ende av
is ted</w>
Fak toren</w>
satis fied</w>
un möglich</w>
D es</w>
verur teilen</w>
zunehmen d</w>
st -
bew ußt</w>
tr a</w>
J ourn
grenz e</w>
ra dic
Bereit schaft</w>
en -
19 7
0 -
difficul ty</w>
ko st
Haushal ts</w>
ter nal</w>
z ens</w>
ich ts
Vol l
pre -
genü gend</w>
unver züglich</w>
ß ten</w>
Mechan ismen</w>
isch em</w>
thre aten
Al li
betra cht</w>
dist inc
Fisch ler</w>
lich ten</w>
mark ed</w>
Stabil itäts
An betracht</w>
politi ken</w>
Ö ffnung</w>
teil nehmen</w>
ver letzungen</w>
re ser
u ationen</w>
ackno wledge</w>
ec ke</w>
Be trifft</w>
wä s
ne ws</w>
tz ei
dür fte</w>
mit teilen</w>
er stens</w>
sur vi
V ier
ac tively</w>
er lebt</w>
vir tu
dele g
h ü
Aus nahme</w>
Nach hal
Gaz a</w>
wel ches</w>
u tive</w>
hinzu fügen</w>
ent weder</w>
en vis
shor t
grenzüberschreit enden</w>
Eng l
highli ghted</w>
leich heit</w>
neu tr
manufac tur
A T
Lebensmittel sicherheit</w>
verursach t</w>
vis ory</w>
Bedro hung</w>
ver trag</w>
so dass</w>
pati ents</w>
Fäh igkeit</w>
wär tige</w>
feh l
Fin land</w>
schwer wie
Hung arian</w>
Proto col</w>
extre me</w>
ro om</w>
gan g
pro ch
He ads</w>
bre ak</w>
Pati enten</w>
beein träch
ati schen</w>
genu inely</w>
hei m
propor tion
St and</w>
frü heren</w>
tex ts</w>
S ing
resul ting</w>
Pal ästin
Vol kes</w>
fu els</w>
pre ise</w>
Zu ck
ab ilities</w>
ves sels</w>
Chan cen</w>
Con sequently</w>
ver lässi
en kt</w>
Hindern isse</w>
ung er</w>
e g
compul sory</w>
überzeu gen</w>
Mon at</w>
Er weiter
leg ally</w>
bre ite</w>
in zwischen</w>
ei ra</w>
rech tzei
is ol
valu able</w>
sicher gestellt</w>
G as
re m
negoti ation</w>
wat ers</w>
ex ports</w>
deli ber
199 2</w>
ger äumt</w>
ag ne</w>
kehr en</w>
Wirtschaftswachst um</w>
ch in
Komm un
gew ün
er o
Liber alen</w>
ge ehrte</w>
er hält</w>
Au stausch</w>
bish eri
Gipf el
f ert</w>
Ur spr
M ot
E F
inves tieren</w>
schä tzen</w>
interpre tation</w>
an sch
Beit räge</w>
ste chn
eng leichheit</w>
gegenwär tige</w>
refer ring</w>
Vor lage</w>
fig ure</w>
cho ose</w>
p sych
mom ent
sen den</w>
befürwor ten</w>
defic it</w>
D e</w>
A ktions
ger in
Rech ten</w>
bes itz
inv est</w>
Th urs
ven ts</w>
Krä fte</w>
re min
ver bo
consider s</w>
sha dow</w>
an da</w>
Ein stellung</w>
primar y</w>
ut ung</w>
besteh ende</w>
kulturel le</w>
angenommen en</w>
Führ ung</w>
ni veau</w>
cla im</w>
le ads</w>
Demo kraten</w>
et te</w>
Don ner
d ated</w>
tex ti
zentr ale</w>
spezi ellen</w>
W issen</w>
Frau en
200 7-
satisfac tory</w>
off enen</w>
gen ce</w>
ver weisen</w>
Program men</w>
buil t</w>
Chanc engleichheit</w>
te in</w>
Mo dern
nah me
v ings</w>
St atisti
G DP</w>
Con trol</w>
Fe der
PPE- DE</w>
entfern t</w>
il ater
an ces</w>
ar dis
h ungen</w>
h aus
sustain ability</w>
gere gelt</w>
an gehen</w>
dien st</w>
Su dan</w>
Proble mati
Sek tors</w>
laun ch</w>
a part</w>
4 8</w>
Co operation</w>
türk ischen</w>
kurz fris
sta at</w>
Men ge</w>
h im
Is lam
M erk
Georgi a</w>
gen ie
Thurs day</w>
f ak
sch reiben</w>
Lauf e</w>
Demo c
th -
E Z
Mor e</w>
M ich
Wh ite</w>
Vertra ges</w>
Ban ken</w>
ausgezeichne te</w>
Inter nal</w>
parall el</w>
Entsch lossenheit</w>
Fo od</w>
den jenigen</w>
inf rin
enjo y</w>
s lo
cons ci
destru ction</w>
compati ble</w>
Ge werk
an spru
Sen kung</w>
Man gel</w>
h inter
Bevölk erungs
p rise</w>
le y</w>
Vertre tern</w>
k tiv</w>
Mr d.</w>
neighbour s</w>
Be fore</w>
1 ,
Fremden verkehr</w>
Allgem einen</w>
ur red</w>
freu en</w>
ing -
koh är
f our
Par lia
sugges ted</w>
si eben</w>
gewähr en</w>
co de</w>
bed ing
Gre ens</w>
Wil l</w>
K openhagen</w>
dies bezü
stim ul
tele vision</w>
In dones
Nor thern</w>
Saf ety</w>
Verle tzung</w>
Ex ternal</w>
Um struktur
er er</w>
militär ischen</w>
se where</w>
be comes</w>
da ily</w>
Pre mier
reques ts</w>
assu me</w>
st ant</w>
liber al</w>
weit gehend</w>
mo bi
be ur
ar t</w>
low ing</w>
Hand lungs
Mechan ismus</w>
Rechnungsh of</w>
ehemali gen</w>
c ars</w>
Ide en</w>
Sou verän
gefähr det</w>
proble me</w>
run ning</w>
k tive</w>
mi ß
Schi ffe</w>
th eit</w>
asi de</w>
On ce</w>
reich s</w>
acc es
N ational</w>
steh ende</w>
K ategor
sch em
Verbrauch ern</w>
mensch liche</w>
some one</w>
a des</w>
Be w
sup p
sen sib
Fan g
In ner
Bit te</w>
n ischen</w>
Austri an</w>
ri es</w>
ver häl
laun ched</w>
neighbour ing</w>
Fischerei politik</w>
mil k</w>
ange kün
regre t
auf nehmen</w>
Tei le</w>
Lissabon- Strategie</w>
regar ded</w>
grundsätz lich</w>
Er haltung</w>
mangel n
Ger ade</w>
ori ent
main tained</w>
K lim
m essen</w>
an zunehmen</w>
Protokol ls</w>
constitu te</w>
promis ed</w>
Ru ß
Energi es
prepar ation</w>
Umwelt schutz</w>
ev a</w>
Kontin ent</w>
Zus atz
neh me</w>
Spra chen</w>
bereit gestellt</w>
Abgeordne ter</w>
Ur sachen</w>
Nach druck</w>
transi tional</w>
fri ends</w>
stru g
entwick elten</w>
Schul z</w>
1 1.
er re
me ant</w>
C i
Stock hol
Sch luß
num bers</w>
decla red</w>
indic ated</w>
Krank heit</w>
be zeichnet</w>
Region al</w>
el sewhere</w>
multilater al</w>
Ver halten
3 2</w>
För der
medic ines</w>
tar ge
lie ben</w>
col lab
zz a</w>
spee ches</w>
Brit ain</w>
V AT</w>
ein geleitet</w>
g ischen</w>
Ver ab
geb illi
Hel sin
environ ment
Gef än
ac compan
Bürgerbeauftra gten</w>
welt weiten</w>
Kon vergen
wirk liche</w>
t w
Vor rang</w>
an -
or ies</w>
b ürokrati
schwieri ge</w>
Ge ist</w>
gre ss</w>
ur ban</w>
umfassen d</w>
ziel e</w>
K op
investig ation</w>
sor gungs
rele ase</w>
angemessen en</w>
re ds</w>
Op position</w>
spra ch
hori zon
is on</w>
Stru ktur</w>
than king</w>
geh enden</w>
au tonom
Kon text</w>
g a</w>
hö here</w>
be einf
gro ß</w>
dio vis
Aus grenzung</w>
oppos ite</w>
EI B</w>
prison ers</w>
y mp
fest zustellen</w>
über winden</w>
ung ar
w ine</w>
demo graph
par tly</w>
ergän z
th ly</w>
Ver ts</w>
K OM</w>
avi ation</w>
pos sibly</w>
Gesetz es
obli ged</w>
Sit uationen</w>
eri ode</w>
Wiederauf bau</w>
6 -0
Din gen</w>
benö tigt</w>
identi fy</w>
dou ble</w>
rel ativ</w>
le m</w>
Bel ast
ob je
Ar e</w>
da m
w ent</w>
concentr ate</w>
gemein schaft</w>
beschrän kt</w>
pre viously</w>
e fully</w>
cle ar
Dur ing</w>
veran k
Schwer punkt</w>
ss on</w>
great ly</w>
versch är
hon our</w>
gn is
rap i
tes ts</w>
viel er</w>
Weit eren</w>
Anla ss</w>
Hin weis</w>
da fri
Per spektive</w>
Dub lin</w>
Wesent lichen</w>
stitu tion</w>
12 .00</w>
Tä tigkeiten</w>
gebie ten</w>
N ice</w>
phy si
g lück
al -
on e-
c ur
propor tion</w>
identi fied</w>
Nachbar n</w>
v in
open ed</w>
groß em</w>
Do es</w>
1 1.</w>
deli ver</w>
Ziel setzungen</w>
pas siert</w>
Sch atten
zu künftigen</w>
c ting</w>
funktion ieren</w>
appoin tment</w>
I mp
1 ;</w>
bedauer lich</w>
N S</w>
&#9 1;</w>
T amp
Genehm igung</w>
spec ies</w>
Ern ähr
lo gi
ep tion</w>
W and
bewäl tigen</w>
l eng
re construction</w>
la y</w>
Konfli kte</w>
de x</w>
es ten</w>
Gemein schaften</w>
Respe kt</w>
in adequate</w>
Arbeitsp latz</w>
arbeit s
len ken</w>
Leist ungen</w>
timet able</w>
befürwor tet</w>
fav ourable</w>
interes siert</w>
M er
sus pen
con tain</w>
With out</w>
en ing</w>
pos sibilities</w>
Problemati k</w>
l esen</w>
neg ativen</w>
Bro k</w>
jud g
stell te</w>
compe tent</w>
v it
zi vil
is ting</w>
in er
A -
Ver trau
wirtschaf tlich</w>
behaup ten</w>
ein sei
finanzi eren</w>
Unter schied</w>
Ge fühl</w>
fi es</w>
gele gte</w>
ener gie</w>
pro of</w>
über ra
H </w>
enfor cement</w>
necess arily</w>
Tamp ere</w>
stei gen</w>
Nation al
tra gic</w>
zurück zuführen</w>
Kandi dat
Mil ch
complic ated</w>
re in</w>
Besch luß</w>
Ur teil</w>
deser ves</w>
th u
Entwicklungsh ilfe</w>
P läne</w>
gest atten</w>
Bed au
comple ted</w>
vor sieht</w>
Posi tionen</w>
Kooper ations
voll ständige</w>
Stim men</w>
Presiden ts</w>
attemp ts</w>
G ar
ad t</w>
deb ated</w>
C an</w>
e b
am s</w>
Ü ber</w>
ate g
Th us</w>
palästinens ischen</w>
ed ing</w>
mo reover</w>
schle cht</w>
ger aten</w>
T isch</w>
des t</w>
Re vision</w>
aff ir
Her kunfts
re move</w>
pp e</w>
it age</w>
an gewandt</w>
I M
at ures</w>
Bur ma</w>
will ing
affec ts</w>
San ter</w>
komple x
Vorsitz enden</w>
W all
Er füllung</w>
vor bereitet</w>
ic ate</w>
ac ted</w>
E D
se kre
K la
näch ster</w>
Alli anz</w>
wer ke</w>
o wn
Ab hängi
Auf hebung</w>
ver z
def en
him self</w>
au stausch</w>
Ungar n</w>
Er reichung</w>
Regu lierung</w>
al co
militär ische</w>
AID S</w>
vor liegen</w>
sch ritt
handel s
fahr ens
S omm
Er richtung</w>
S ad
garan tiert</w>
Verhalten s
he ad</w>
4 .</w>
Belgi an</w>
suff ered</w>
ver halten</w>
bes u
beabsichti gt</w>
Kon vention</w>
ali a</w>
e ties</w>
ei m
hal ts</w>
op tions</w>
besonder er</w>
implic ations</w>
f isch
T en
rau ms</w>
exten sive</w>
der er</w>
car rying</w>
langfris tig</w>
be antworten</w>
help ed</w>
cho sen</w>
ran che</w>
je denfalls</w>
2 1.</w>
Energi equ
Kenn zeichnung</w>
T u
ten tion</w>
top ic</w>
über aus</w>
scho ol</w>
after noon</w>
ateg ory</w>
wesent licher</w>
gen -
P en
es ische</w>
co ast
Ha ving</w>
cent res</w>
geh ende</w>
u l</w>
es day</w>
ic k</w>
Durch setzung</w>
su itable</w>
b all</w>
st ag
exp lic
su che</w>
kon stru
N RO</w>
Pot enzi
&#9 3
&#93 ;</w>
issu ed</w>
ich ert</w>
Sch w
d wide</w>
Dritt staaten</w>
E M
conf ron
Ver ordnungen</w>
Aus weit
hear ing</w>
Je der</w>
conduc ted</w>
ze go
bro a
ge führten</w>
faci lities</w>
chtfer tigt</w>
n es</w>
be fasst</w>
adverti sing</w>
Comm on</w>
ge teilt</w>
Her zego
Ju gend</w>
Partn ern</w>
g lie
A ktion</w>
tradi tion</w>
Verab schied
vor stellen</w>
woh l
willing ness</w>
au diovis
compe ten
Kroati en</w>
F ri
ore st</w>
to -
Min uten</w>
F u
Kap az
verbun denen</w>
geb oten</w>
ne ar</w>
Wahr ung</w>
Doku mente</w>
2007- 2013</w>
d rit
einzel ne</w>
zah ler</w>
Dem on
sou thern</w>
la p
po orest</w>
pp ing</w>
guarante eing</w>
sh aushal
Ex isten
Be grün
Garanti en</w>
spezi elle</w>
Verabschied ung</w>
re ven
Ausweit ung</w>
R oh
z ing</w>
pri or
wa ffen</w>
Prä sidi
se eks</w>
Hal b
Aus maß</w>
Menschenrechts verletzungen</w>
un ilater
is mus
ssi er</w>
för derung</w>
prospec ts</w>
pos ing</w>
ell es</w>
tro tzdem</w>
Techn ologie</w>
rati fied</w>
D än
Ab fall
ta r</w>
trage dy</w>
je gliche</w>
C S</w>
verab schieden</w>
Represent ative</w>
zu gän
Klar heit</w>
letz ter</w>
heal thy</w>
os oph
soci eties</w>
ati ver</w>
ü st
Mehr wert
de als</w>
ir re
sti ge</w>
zu gr
Ges ellschaften</w>
su rely</w>
E m
d ol
Bürokrati e</w>
Ni zza</w>
E L
defin itely</w>
Reg el</w>
l usses</w>
Helsin ki</w>
land wirtschaftlichen</w>
be fu
Be achtung</w>
Donner stag</w>
komm unik
B IP</w>
inten tions</w>
Souverän ität</w>
ch em</w>
er weiter
b ing</w>
m ien</w>
consider ations</w>
ha bit
in ev
uni form</w>
us h</w>
UN O</w>
wh ereby</w>
w -
H ol
sp read</w>
rinzi p</w>
lü ck</w>
Sach ver
Anmerk ungen</w>
schem es</w>
Belgi um</w>
ar ti
ra ising</w>
fu sion</w>
Ein kommen</w>
religi ö
ex por
gehand elt</w>
se bene</w>
recht fer
bedeu tende</w>
drück en</w>
enn ess</w>
sto ß</w>
P an
chair man</w>
g ü
Au ge</w>
bil det</w>
g ap</w>
Rau ms</w>
Ver breitung</w>
Stra ft
d sch
entscheiden den</w>
Regional politik</w>
con tro
diplom atic</w>
3 4</w>
sur v
St ü
ökonom ischen</w>
einstimm ig</w>
g ine</w>
klär ung</w>
th ers</w>
Verteidigungs politik</w>
su gar</w>
her gestellt</w>
geb unden</w>
gi gen</w>
c rop
aus gerichtet</w>
Zeit plan</w>
Grün buch</w>
z edon
r at
mark t
gemeinsam es</w>
An gst</w>
ch ann
em en</w>
müs ste</w>
weis ung</w>
fair ly</w>
govern ing</w>
bestimm ungen</w>
kap it
P i
Soci alists</w>
Tibe t</w>
zu gestimmt</w>
ö ster
sp ite</w>
Menschenrech ten</w>
success fully</w>
ar ise</w>
defin i
zufrie den
excep tion</w>
re isen</w>
in st
D ad
we alth</w>
if f</w>
w ed</w>
C F
op enness</w>
bedau ere</w>
hier bei</w>
Hung ary</w>
For um</w>
con stant</w>
Li thu
c op
ag gre
nation als</w>
respon ding</w>
cu ts</w>
Hoh e</w>
sek tors</w>
alis iert</w>
199 3</w>
Poliz ei</w>
keines wegs</w>
Da für</w>
Bil d</w>
worl dwide</w>
gel ingt</w>
address ing</w>
O ri
sym pa
bes it
S am
Tran s
Dad urch</w>
. 5</w>
reli able</w>
er reich
ret ari
ten e
Men sch
langfris tige</w>
si ght</w>
Land wirtschafts
e ken</w>
schwed ischen</w>
Slo wak
Ser bien</w>
sor ry</w>
Finanzi erungs
Gali le
essen tially</w>
pu rely</w>
Gan g</w>
Au tom
Um gang</w>
zugr unde</w>
müs sten</w>
Ol ymp
ti ere</w>
lauf enden</w>
uropä ischen</w>
ex tra</w>
in folge</w>
Au th
Inter essen
Einwander ungs
Person en
iel t</w>
Sad dam</w>
appro xim
+ </w>
n ungs
g nen</w>
on ed</w>
foc used</w>
F lor
mis take</w>
acci dent</w>
ch eck</w>
oph ob
g keits
so weit</w>
gebra chten</w>
stä d
zäh lt</w>
Un ser
Ge fan
um p
fe ed</w>
C le
demand ing</w>
stän de</w>
F our
No ch</w>
sch reck
3 6</w>
ific ations</w>
ar ten</w>
anges ehen</w>
aus üben</w>
3 3</w>
unanim ously</w>
stre am
betrei ben</w>
dru g</w>
F ünf
si li
cor e</w>
fortun ate</w>
Nachhal tigkeit</w>
strateg ische</w>
fir e</w>
w an</w>
hund reds</w>
sorgfäl tig</w>
St reit
Pal ästinens
Trag ö
st ein</w>
sol ely</w>
her vor</w>
grei ft</w>
ra dio
ment ation</w>
gesch rieben</w>
rel atively</w>
inter institutional</w>
erlau bt</w>
dep end</w>
pen sions</w>
max im
r ation
ó n</w>
herr sch
Finn land</w>
öster reich
aus wirken</w>
H ab
de par
wes enheit</w>
Ge win
Hil fs
deta illi
statt findet</w>
Mon tene
Zah lungen</w>
sph äre</w>
ein ameri
tion ary</w>
EC B</w>
ter ri
aus geschlossen</w>
über lassen</w>
5 5</w>
exten ding</w>
CO D</w>
tel ec
über greif
a y
for um</w>
Er arbeitung</w>
ess ed</w>
in akzeptabel</w>
u ally</w>
Inkraft treten</w>
modi fied</w>
St unden</w>
her zustellen</w>
Z im
increas es</w>
D oh
ref ers</w>
be völk
ver tritt</w>
determin e</w>
ch ap
k lear
Dan ish</w>
be utung</w>
zw ingen</w>
E ver
er teilen</w>
thre ats</w>
Doh a</w>
correc tly</w>
p e</w>
ven tion
Aspe kten</w>
ass ist</w>
west lichen</w>
Schä den</w>
effizi ent</w>
russ ischen</w>
stat tung</w>
Ver fahrens</w>
Demon str
b lin
easi ly</w>
dienst leistungen</w>
Akte ure</w>
k tes</w>
al em</w>
L ag
uneingeschrän kt</w>
stre ssed</w>
sor ge</w>
ver w
prinzi p</w>
Ei gent
wil ligen</w>
e astern</w>
he ading</w>
fore most</w>
Vor be
3 8</w>
bre ak
b our</w>
to ols</w>
li e</w>
geograph ical</w>
back ground</w>
Ever y
redu zieren</w>
cra ft</w>
adap t</w>
hop es</w>
us ual</w>
ey e</w>
­ </w>
S K</w>
phenomen on</w>
gran ting</w>
ver letzt</w>
zu erst</w>
sin stru
st rä
besitz t</w>
di ty</w>
b li
respec ts</w>
dar gelegt</w>
kontrol lieren</w>
prof its</w>
z eiten</w>
loo ked</w>
Tim e</w>
ei ght</w>
Qual itäts
es se</w>
anerk ennen</w>
remain ing</w>
tu red</w>
Slo ven
harm ful</w>
R E
taxpay ers</w>
Liber al</w>
pla yers</w>
Di rek
car bon</w>
Betrie be</w>
depen ds</w>
spra ch</w>
unabhängi gen</w>
l ust</w>
ver la
zusammen arbeit</w>
Tro tzdem</w>
pa ying</w>
absur d</w>
Argu mente</w>
ro lle</w>
Slov ak
di ed</w>
claim s</w>
F ar
Er kenn
campa ign
Behör de</w>
wa ff
Überein kommens</w>
rapi dly</w>
Zw ischen
de -
C iti
woh ner</w>
B ir
Subsidiar ität</w>
Bud getary</w>
pri or</w>
Ta i
be ef</w>
re stri
be ge
disp ute</w>
ge plan
heav y</w>
w asser
d rop
en abling</w>
oblig ator
regi onen</w>
fü gt</w>
re action</w>
heal th
C uba</w>
Mitarbeit er</w>
pl us</w>
her itage</w>
Kommunik ation</w>
Aus beutung</w>
experien ced</w>
tre ff
ver gleich
pro sec
Erwä gung</w>
ad vice</w>
commun ications</w>
H ome</w>
Jo int</w>
ange wendet</w>
f ei
sta ke</w>
it ten</w>
respek tieren</w>
so bald</w>
char ges</w>
i .
bureauc racy</w>
besch leun
e .</w>
alco ho
Modern isierung</w>
m än
Bo th</w>
Formu lierung</w>
beit rä
intelle ctual</w>
aus gaben</w>
Abhängi gkeit</w>
ri gor
skil ls</w>
sp end</w>
wissen schaftliche</w>
shor t-
consider ably</w>
st adt</w>
veröffent licht</w>
vi l</w>
Fak tor</w>
schließ e</w>
bel ast
beeinf lus
Her stellung</w>
4 9</w>
gre en</w>
jen er</w>
Funktion ieren</w>
Partner ship</w>
sto ck</w>
bes tre
Wichti gkeit</w>
W here</w>
Gro w
Grow th</w>
8 .</w>
acqu is</w>
feel ing</w>
dec ades</w>
Vor red
Ter rit
achie vement</w>
ge treten</w>
6 5</w>
wor st</w>
Ham as</w>
enti al</w>
unter suchen</w>
regul ated</w>
re ve
Änder ungs
wei len</w>
ha bt</w>
Vor stellung</w>
i. e.</w>
Verfass er</w>
pro u
R ass
An stieg</w>
mi um</w>
Po st
Zu wander
sc and
tak ings</w>
dis cip
zi p
Berat ungen</w>
Kin no
emphas ised</w>
offen bar</w>
stabil ität</w>
ber t</w>
6 .</w>
power ful</w>
wor rying</w>
fahr t</w>
Refer endum</w>
pra gmati
Wir d</w>
effek tive</w>
kü m
kon tin
Risi ko
d än
O per
de cken</w>
fo unded</w>
Kapit al
sta un
Ab än
einf ach
Ger icht</w>
4 3</w>
umfas st</w>
gemeinsam er</w>
recogn i
sa vings</w>
op pose</w>
Ergebn issen</w>
Identi tät</w>
Flücht ling
4 2</w>
wor thy</w>
Jahr zehn
Bel gien</w>
rec all</w>
führ enden</w>
Luxem burg</w>
lin ien
where as</w>
es sions</w>
pi ece</w>
CO 2-
unter bro
Anhör ung</w>
wa ge</w>
bewer ten</w>
all ing</w>
Ban an
usi as
inter nen</w>
pl ur
Netz e</w>
Bes itz
Z wan
S äu
satisfac tion</w>
Kom pro
c ategor
be trieben</w>
Anwen dungs
histor ical</w>
un an
rü st
l ity</w>
besei tigen</w>
nor men</w>
j our
der ed</w>
Schen gen-
t t</w>
Au tonom
regret table</w>
S -
R ich
er enden</w>
As soci
minis ter
komm un
aktu elle</w>
Mac edon
clar ity</w>
Schutz es</w>
sup posed</w>
C a
Europ ar
Zuständi gkeiten</w>
drück t</w>
wirtschaf ten</w>
applic able</w>
manufactur ers</w>
ar med</w>
at ur</w>
vi ces</w>
eh ol
ek tor</w>
geb il
doub ts</w>
do c
K ann</w>
passen ger</w>
S on
Unterneh men
eindeu tige</w>
Energie politik</w>
Augen blick</w>
Y or
Finanz krise</w>
R ural</w>
zeich en</w>
B S
Nach frage</w>
Kinno ck</w>
Jus t</w>
E gyp
restric ted</w>
ei ler</w>
Recht sa
erlau ben</w>
d lichkeit</w>
E P</w>
vor hin</w>
mor al
contribu ted</w>
rechtzei tig</w>
ber aten</w>
ris ing</w>
N or</w>
hy po
Ver fol
control led</w>
Lat einameri
wäh len</w>
V e
re ss
Ruß land</w>
Auth ority</w>
Kapit el</w>
bes tim
k urr
to s</w>
Le ft</w>
geeigne te</w>
ahr t</w>
Geor gien</w>
under takings</w>
hervorra gende</w>
enter ed</w>
viol ation</w>
sch lech
Schatten berichterstat
ger ä
zu kommen</w>
H under
ver dienen</w>
Gest atten</w>
pro mp
C 4-0
erör tert</w>
et c</w>
komm erzi
cris es</w>
anzu wenden</w>
ima gine</w>
proto col</w>
im m
di ge</w>
l ying</w>
Parlia mentary</w>
Ausschü sse</w>
u ßer
streng th</w>
ter s
cal cul
big gest</w>
französ ische</w>
unterbreit et</w>
Ä ußer
amtier ender</w>
legitim acy</w>
Un der</w>
encoura ged</w>
applic ations</w>
struk turel
größ t
Altern ative</w>
Produ kten</w>
wah l</w>
Niederlan den</w>
Jugen dlichen</w>
Off enheit</w>
an wenden</w>
wel chem</w>
mo dell</w>
gegensei tigen</w>
Ver fahrens
E V
EZ B</w>
rep rene
fest legen</w>
geb ung</w>
Mil o
prakti sche</w>
ans wer
finan ced</w>
Gr öß
histor ischen</w>
An träge</w>
comp on
Am t</w>
schwer en</w>
dict ator
tic les</w>
Best re
dynam ic</w>
dic tion</w>
P H
re place</w>
Premier minister</w>
con vention</w>
Ent schä
eit s
Ma zedon
proc essing</w>
trans fer
ar ticle</w>
competen ces</w>
formu liert</w>
C NS</w>
refle cted</w>
pur ch
Le gi
un necessary</w>
H äfen</w>
w ahren</w>
enh ance</w>
statt gefunden</w>
Energiequ ellen</w>
enthal tenen</w>
P SE</w>
bei behalten</w>
vor gehen</w>
st ed</w>
constitu tes</w>
ab lehnen</w>
Minister rat</w>
klär en</w>
fizi eren</w>
ou red</w>
ier enden</w>
negoti ated</w>
E ri
fra g
ac tors</w>
deli ver
k as</w>
P hän
Pol ish</w>
et schen
Minder heit</w>
endgül tige</w>
R oth
remo ved</w>
stat ing</w>
Den mark</w>
is land</w>
Abstimm ungen</w>
Tele kommunik
prou d</w>
Aus sage</w>
Fort setzung</w>
Sta dt</w>
besch ließen</w>
region aler</w>
Subsidiar itätsp
griech ischen</w>
im por
überwach en</w>
Richt linien
Dro gen</w>
fir ms</w>
best ände</w>
dep th</w>
in ess</w>
cla ssi
Sch war
Haushaltsp lans</w>
de tri
fort setzen</w>
Un s</w>
scho ols</w>
Fr ist</w>
Ju gosla
c o</w>
ira ble</w>
zeu g</w>
Viel zahl</w>
incorpor ated</w>
Stabil itätsp
ra id</w>
k olle
st olz</w>
Pf lan
gere chtfertigt</w>
3 9</w>
Wirk samkeit</w>
o ber
sta y</w>
affec ting</w>
supple mentary</w>
schn eller</w>
klär t</w>
perform ance</w>
t ance</w>
gra vier
Ver teilung</w>
er st
sc ru
199 0</w>
ener g
citiz en
Ab bau</w>
succ eeded</w>
wider spie
europ a</w>
ei en</w>
Poli zei
eng age</w>
Dän emar
sag ten</w>
Montene gr
cour ts</w>
hö heren</w>
finanzi erung</w>
Betra cht</w>
7 .</w>
fuhr en</w>
0 ,
omm un
Mon o
icher maßen</w>
K ir
Doku menten</w>
Erweiter ungs
Bes teuerung</w>
Ratsvorsitz es</w>
s au
exam ined</w>
Associ ation</w>
Grund sätzen</w>
aus wärtige</w>
Gipfel treffen</w>
Mis sion</w>
Mon ti</w>
D at
qu iry</w>
ie den</w>
erör tern</w>
belie f</w>
air lines</w>
Jahrhunder t</w>
targe ted</w>
zu zu
Citi zens</w>
gesund heit
hon est</w>
i zation</w>
Auf grund</w>
per su
T aten</w>
thor ough</w>
mean ing</w>
L T</w>
hand els</w>
sen ken</w>
b ot
at edly</w>
4 00</w>
draf ting</w>
rati fiziert</w>
market ing</w>
er lassen</w>
zu künftige</w>
Rass ismus</w>
every body</w>
hin aus
ein geräumt</w>
Tour ism</w>
ab schließend</w>
ob tained</w>
fre iheiten</w>
religi on</w>
ti m</w>
ver ehrten</w>
wor ding</w>
applic ant</w>
Ges icht
mus sten</w>
represent ation</w>
vor zunehmen</w>
u .</w>
bil dungs
pl at
gener ell</w>
grenzüberschreit ende</w>
mechan ismus</w>
sa ke</w>
regel mäßig</w>
k lu
durch zusetzen</w>
c lu
konzentri ert</w>
al location</w>
ge tr
ver zerr
er gibt</w>
un ab
vol u
demokrati sch</w>
O EC
F i
höch ste</w>
fäl lig</w>
de v
Ar men
wit n
mechanis men</w>
T A</w>
reiter ate</w>
F I</w>
sub jects</w>
fair en</w>
4 4</w>
evi dent</w>
dis abled</w>
reagi ert</w>
interven e</w>
öffent lich</w>
der i
consequ ence</w>
mitglie der</w>
Steuer zahler</w>
Be ziehung</w>
all s</w>
Legisl ativ
inc enti
tig ungen</w>
Auf enthal
Führ ungs
k einem</w>
verbo ten</w>
Wäh ler</w>
alis ieren</w>
Beam ten</w>
citizen ship</w>
ent reprene
Zu stand</w>
Legi tim
zweit er</w>
Br enn
F assung</w>
bes tra
f lä
ab end</w>
ök ologischen</w>
thre sh
Stu dien</w>
basi ert</w>
ut most</w>
S icherung</w>
lea der</w>
tra gung</w>
Berichterstat tern</w>
vereinbar t</w>
illu str
ma p</w>
explan ation</w>
y m
B ol
scru tin
a th
sp or
ri es
enor me</w>
s wi
Mar ok
Begrün dung</w>
tik et
In dustry</w>
f ur</w>
Vor gehensweise</w>
present ing</w>
sich erung</w>
S ah
Gerichtsh ofs</w>
verstär kte</w>
vorhan denen</w>
C ulture</w>
r en</w>
exclu ded</w>
V ie
wah len</w>
sit e</w>
er setzen</w>
Ha iti
Journ alisten</w>
ein gerichtet</w>
s ache</w>
ung ere
part- session</w>
Außen minister</w>
re servations</w>
fu hr</w>
defin iert</w>
besit zen</w>
erneuer baren</w>
post -
Rand lage</w>
P u
Mor gen</w>
Er inn
Fun ktion</w>
Fra gest
ab stain
Galile o</w>
ch er
gel ingen</w>
ver wiesen</w>
0 s</w>
we ak</w>
F uß
bedro ht</w>
A pp
erwähn ten</w>
sa ve</w>
Y es</w>
rei b
Män gel</w>
mo un
bekräf tigt</w>
Montenegr o</w>
zusätz lich</w>
af raid</w>
deser ve</w>
ü bung</w>
Mor occ
9 .</w>
f em
beteili gten</w>
I ts</w>
stä tigkeit</w>
estim ated</w>
ali zation</w>
d ing
D u
der ly</w>
f loo
j ahr
simpli fication</w>
gebie te</w>
bureauc ratic</w>
lie ber</w>
Klim a</w>
N et
länd ische</w>
größ er</w>
sh aring</w>
Welthand el
Proje kten</w>
sm aller</w>
elec toral</w>
b lu
last ing</w>
coun ter</w>
Ver sorgung</w>
A ct</w>
ber ichten</w>
ni ght</w>
S ehr</w>
s ought</w>
in hal
lea ving</w>
im pe
incenti ves</w>
gre enh
Klimawand els</w>
P il
anti cip
deep ly</w>
Mus li
sum mer</w>
sus p
toler ance</w>
sur ro
a di
rest ore</w>
Be trag</w>
tre aties</w>
er arbeitet</w>
8 5</w>
b rechen</w>
alis ing</w>
cre ates</w>
re serve</w>
tu s</w>
begrenz t</w>
re au</w>
wel comes</w>
er wiesen</w>
en cies</w>
endgül tigen</w>
Sub stan
W ol
ausge geben</w>
persön lichen</w>
Wissen schaft
Rom an
be merk
konstruk tive</w>
char ge</w>
wi en</w>
Milo se
Person al</w>
negoti ate</w>
Potenzi al</w>
P la
Ein heit</w>
ge k
grün den</w>
prof it</w>
ton nes</w>
unterbreit en</w>
Koh är
Mad rid</w>
Kandidat en
ple asure</w>
Erzeu ger</w>
ar rest</w>
mün dlichen</w>
S port
K uba</w>
äußer ster</w>
lös ung</w>
effizi ente</w>
. 30</w>
b ten</w>
li tion</w>
s ein
Nachbar schafts
Ger ichts
Slovak ia</w>
join tly</w>
kor rigi
Fest stellung</w>
spä t</w>
f ers</w>
a gen</w>
al te</w>
schn itt</w>
Initi ativ
c ast
Ele k
8 -
Absch luß</w>
regis ter</w>
gegen über
im port</w>
ti se</w>
D ele
credi ble</w>
Lab our</w>
gi ble</w>
erheb lichen</w>
L ob
Bus h</w>
sugges tions</w>
bilater alen</w>
i red</w>
post pon
mehr fach</w>
cer ti
Ci vil</w>
mu g
4 6</w>
Mittelmeer raum</w>
Aus führung</w>
Haf t
vor nehmen</w>
hal t
ein führen</w>
Fragest unde</w>
view ed</w>
der o
greenh ouse</w>
Tun is
peri ode</w>
o x
ress ourcen</w>
buil dings</w>
T ieren</w>
ben en</w>
Aus einander
so genannten</w>
Qu ali
befürwor te</w>
chec ks</w>
ator ium</w>
F lo
er fordern</w>
bo und</w>
per sec
ver län
G anz</w>
Al koh
ver wei
General sekre
Arbeitneh mer
import antly</w>
R ind
vor liegt</w>
bean tra
terri ble</w>
D el
Konsul tation</w>
surpris ed</w>
mäß igen</w>
A 5-00
prospec t</w>
sch einen</w>
Assozi ierungs
be aring</w>
er teilt</w>
eit ern</w>
Bestimm ung</w>
connec ted</w>
Vie tn
ad mit</w>
V al
einzel staatlichen</w>
im peri
auf treten</w>
asu s</w>
Gener ation</w>
Tsch ech
Gew icht</w>
Stockhol m</w>
ic ro
Sü d
bere ichen</w>
natür lichen</w>
m acro
v ast</w>
Einwander er</w>
le m
Entschließ ungen</w>
r ats</w>
all -
zentr alen</w>
T AC
declar ations</w>
Gipf els</w>
sin cer
repe atedly</w>
Bar on
a y</w>
Imp ul
Eben en</w>
Sy m
Kommiss are</w>
Fr at
Aus nahmen</w>
Kohär enz</w>
Morocc o</w>
gesetz ten</w>
T od</w>
för der
expres sing</w>
ei dung</w>
Bla ir</w>
alis tische</w>
vernünf tig</w>
Ameri ka</w>
Mazedon ien</w>
respek tiert</w>
H us
s ön
stat ten</w>
h it</w>
R en
p ha
Katastrop hen</w>
kon sequent</w>
Pre sse
kan di
geh e</w>
sel ec
ah me</w>
Res er
Slowak ei</w>
is ion</w>
cons isten
be währ
justi fy</w>
ho ben</w>
Äußer ungen</w>
bin dung</w>
ed s</w>
ro ads</w>
Kommissions vorschlag</w>
breit en</w>
do or</w>
Wachstum s
Her steller</w>
pla cing</w>
sch ätz
Hum an
K ab
sho wing</w>
Er wer
r o</w>
Wettbewer bs</w>
c yc
sett lement</w>
Garanti e</w>
hin gegen</w>
ter in
Unter zeichnung</w>
Gest altung</w>
comm o
Ameri kan
Kompeten zen</w>
wei ght</w>
fle et</w>
führ ende</w>
ey es</w>
bisheri gen</w>
Aus nahm
ersch einen</w>
Prä vention</w>
Ser vice</w>
com ings</w>
combin ed</w>
Konsul t
1 50</w>
tri eben
excep tional</w>
val ent</w>
is tics</w>
employ ers</w>
out standing</w>
nach denken</w>
gi pf
ven tive</w>
ge fasst</w>
EG F</w>
draf ted</w>
ong side</w>
erwähn te</w>
Ni geria</w>
unterschied lich</w>
mark tes</w>
red und
Jah re
el er
Prü f
ungs -</w>
zwei f
sci ence</w>
einzu beziehen</w>
hol en</w>
suspen ded</w>
compla ints</w>
ci vil
Fol lowing</w>
health care</w>
Um feld</w>
Auf trag</w>
tre gi
Le bens</w>
kin ds</w>
ärm sten</w>
pu ts</w>
feder al</w>
Ä r
sich ere</w>
eth ical</w>
lich keits
ac king</w>
sti ll
sym bo
elimin ate</w>
dela ys</w>
har dly</w>
amp ;</w>
& amp;</w>
ge prä
un employed</w>
S P</w>
Z war</w>
ag no
Besu ch</w>
ak tiven</w>
vernünf tige</w>
ähn liche</w>
M utter
W ar</w>
den de</w>
4 -
um zu
La eken</w>
Ko sten
Sozial demokraten</w>
short comings</w>
ü r</w>
Frat tini</w>
Ten den
Yor k</w>
logi cal</w>
Mol do
G ol
tail s</w>
sp ap
bevölk erung</w>
ne arly</w>
refle cts</w>
th in</w>
Terror isten</w>
Christ demokraten</w>
stärk sten</w>
Milose vi
Dänemar k</w>
per pe
Bu reau</w>
off ene</w>
S h
I G
Finanz mittel</w>
erinn ere</w>
Macedon ia</w>
w onder
we chsel
a .m.</w>
v acc
trans actions</w>
pat ent</w>
fähi gen</w>
bestim men</w>
I II</w>
ens yst
dead line</w>
Rind fle
Se ever
Arbeits gruppe</w>
beg ünsti
W ell</w>
Flu gges
Wer bung</w>
expen sive</w>
er arbeiten</w>
4 1</w>
dire kte</w>
glau bwürdi
Mat eri
hil fre
foun dations</w>
dra w
demokrati scher</w>
G V
Ch em
ehr lich</w>
mo tions</w>
re vised</w>
b as
pris on</w>
B l
V o
ir ische</w>
ne x</w>
Atlan tic</w>
unabhängi ge</w>
a g</w>
sch ö
län gst</w>
sti pul
Jus tiz
läu fig</w>
candi dates</w>
fe wer</w>
dire kten</w>
r und</w>
gem äß
broa der</w>
transatlan tic</w>
lau b
EU- Ebene</w>
tä glich</w>
z -
te ach
Kü sten
c ategory</w>
inf lation</w>
9 2</w>
bel on
Alban ia</w>
Europ a-
geeig net</w>
gebilli gt</w>
beizu tragen</w>
Yugosla via</w>
anges tre
perc en
zu gute</w>
Al ger
an de</w>
Weiß buch</w>
rac ism</w>
T onnen</w>
Betru g</w>
europ a
tri al</w>
Insel n</w>
ge fragt</w>
rel ate</w>
under line</w>
Kul turen</w>
te ktion
indi re
bio diversity</w>
em ed</w>
beobach ten</w>
be antwortet</w>
econom ically</w>
pre ad</w>
tribu te</w>
ti erte</w>
two -
rech ung</w>
us er</w>
Ver län
au lt</w>
k riterien</w>
Mär kten</w>
betrie be</w>
diesel ben</w>
sch were</w>
201 5</w>
kontrol liert</w>
expla ined</w>
Ver m
g licher</w>
je op
t mals</w>
ess or</w>
EU R
repe ated</w>
cor por
prakti schen</w>
drän gen</w>
deut liche</w>
Bra zi
mittel s</w>
st sein</w>
des pread</w>
ha z
shap e</w>
zu stande</w>
aci o</w>
ten e</w>
F l
li ability</w>
b el</w>
B is</w>
Ehr e</w>
Ministerprä sident</w>
tra ck</w>
Argu ment</w>
Grund freiheiten</w>
Aus bau</w>
ommun ications</w>
alcoho l</w>
gelan gt</w>
t ability</w>
Krie gs
gest altet</w>
do wn
s co
tr end</w>
unter sucht</w>
e ar</w>
I ran
gh äfen</w>
n one</w>
peri ods</w>
of tmals</w>
ling u
Parla mentar
W ur
en e
Auff or
t aus
Sch rif
amb igu
shi p
ier ende</w>
ent standen</w>
Gu an
geneh mi
PS E-Fraktion</w>
Stabilitäts -</w>
pic ture</w>
expen se</w>
ing u
i fied</w>
bel ow</w>
in sofern</w>
prepar ations</w>
Autom obil
K al
Kern kraft
Pre sse</w>
air craft</w>
W ün
Bewe gung</w>
wi despread</w>
grundle gender</w>
educ ational</w>
auth or</w>
ar z
st atisti
sever e</w>
Islam ic</w>
De f
man che</w>
Tit el</w>
Rück kehr</w>
bedeu tenden</w>
ab geben</w>
C er
gh ter</w>
f ass
gu n</w>
isch -
war mly</w>
be endet</w>
d ul
tatsäch lichen</w>
Binnenmark ts</w>
Steu er</w>
hoch wer
Hus sein</w>
am es</w>
Euro zone</w>
cover s</w>
Betrie bs
kil led</w>
coun t</w>
Menschen handel</w>
Su per
wirtschaf tung</w>
acc ur
Treib haus
resul ted</w>
comp u
General dire
Über arbeitung</w>
boo st</w>
hervorra genden</w>
ut ter</w>
penal ties</w>
Kandi daten</w>
ash ing
Ara b</w>
Vorred ner</w>
l are</w>
über prüft</w>
depen dence</w>
Euro st
pas st</w>
metho den</w>
sit es</w>
Zun ahme</w>
ro ots</w>
k al
m its</w>
condem ned</w>
leit ung</w>
f unded</w>
war ning</w>
ni er</w>
kl einer</w>
verein bar</w>
deb at
An k
d less</w>
undermin e</w>
Ar me
Fern seh
ari o</w>
wh o
Konta kt</w>
erforder liche</w>
E MU</w>
re tain</w>
14 9</w>
füh len</w>
Mul ti
ter ungen</w>
th alten</w>
Be wäl
kur ze</w>
W ashing
Vereinig te</w>
ig no
pre serve</w>
l -
um gehen</w>
geh ol
ec ological</w>
Ausnahm ere
fre sh</w>
tr ü
ein halten</w>
ck er</w>
Über gang</w>
auf t</w>
dig ital</w>
Inner es</w>
wob o
gegeben enfalls</w>
St ei
se u
Fre e</w>
ges ichert</w>
S wobo
famili ar</w>
Bewäl tigung</w>
ambi tion</w>
Besonder s</w>
sit zung</w>
ge dacht</w>
d ge</w>
ser b
secre t</w>
Rahmen programm</w>
Regu li
enth usias
abo lition</w>
ou gh
lie fern</w>
Ratspräsiden ten</w>
nah e
ber at
Finanzi ellen</w>
PP E</w>
C E</w>
Ver lauf</w>
regul ar
ausreich ende</w>
Is la
be zieh
protec tion
ci ally</w>
extre m</w>
ss ing</w>
tackl ing</w>
un fortunate</w>
ele br
Produ k
ab gegeben</w>
w are</w>
afri kanischen</w>
öffent licher</w>
di versi
quot a</w>
gle ichermaßen</w>
tw ent
fre ely</w>
canc er</w>
ent gegen</w>
Kraft fahr
tran se
p lä
physi cal</w>
Arbeits bedingungen</w>
E tiket
ar my</w>
E th
ver mitteln</w>
ar men</w>
exp an
un den
C ot
lo sses</w>
Palestin ians</w>
regul ate</w>
ge kenn
rail way</w>
Heimat land</w>
out set</w>
less ons</w>
Me dien
mar ine</w>
be came</w>
sol ch</w>
y r
v an
be kun
sch lage</w>
4 -00
d .
program men</w>
Ein schätzung</w>
Schul en</w>
c elebr
bedau ern</w>
al itäten</w>
lar ger</w>
Unter drück
be zahlen</w>
versch mutzung</w>
unzureich end</w>
her aus</w>
dem ic</w>
mus ste</w>
en en
I L
W erten</w>
air ports</w>
Cle arly</w>
T ausende</w>
in en</w>
gradu ally</w>
Verfol gung</w>
RE AC
enhan ced</w>
y outh</w>
occ urred</w>
Gleich behandlung</w>
Sch ick
gefähr lich</w>
zu sagen</w>
Wand el</w>
vi able</w>
Pal acio</w>
pres sive</w>
her bei
R unde</w>
gab en
der jenigen</w>
lar s</w>
Hö chst
caus ing</w>
sh and
zu lässi
ein treten</w>
Verlän gerung</w>
E qu
Entwicklungs zusammenarbeit</w>
h ouse</w>
fore st</w>
coordin ate</w>
proc u
ver zeichnen</w>
Swobo da</w>
O ver</w>
in sufficient</w>
Dol lar</w>
Marok ko</w>
rech nen</w>
langfris tigen</w>
Qu oten</w>
hei k
umwelt freund
ph il
indic ators</w>
produ kte</w>
Kon kurr
Mitentschei dungs
steu ern</w>
ernsthaf te</w>
collab oration</w>
p act</w>
wä chen</w>
terror ists</w>
sha res</w>
ent steht</w>
Zuck er
krä f
Dar fur</w>
kl ausel</w>
würdi gen</w>
s ac
ed y</w>
am e
Beschrän kungen</w>
Sta at
Drit tel</w>
Finan zen</w>
persön liche</w>
sch wei
eingere ichten</w>
Zw ecke</w>
indic ate</w>
Gu ine
Lithu ania</w>
au ßen
dafri ka</w>
civili an</w>
PPE- DE-Fraktion</w>
größ ter</w>
dec lare</w>
proje kte</w>
te x</w>
Frieden s</w>
c ei
ar ising</w>
Ver s
n onetheless</w>
di t</w>
st ages</w>
Mi gration</w>
ab or
er gebn
h ence</w>
ie ty</w>
alis ierten</w>
E EC</w>
recommen d</w>
di eren</w>
Vis ion</w>
Tsch etschen
recei ving</w>
ger ing</w>
Statisti ken</w>
el derly</w>
I I
Gen eva</w>
su ms</w>
amen d</w>
b aus</w>
ra w</w>
Rech en
D auer</w>
Mar tin</w>
K lu
li min
un certainty</w>
wa gen</w>
wäs sern</w>
mü ßte</w>
s ation</w>
prec au
Jahres bericht</w>
popul ations</w>
Ver trägen</w>
accompan ied</w>
mäß ige</w>
lan gem</w>
realis tisch</w>
inter governmental</w>
ot ten</w>
wirtschaf t
zü ge</w>
effizi enter</w>
te am</w>
I l
as se</w>
son sten</w>
ordnungs gemäß</w>
f la
vor her</w>
finan ces</w>
sup por
agre es</w>
ausgewo genen</w>
Tai wan</w>
erläu tern</w>
is tri
Organ en</w>
katastrop hen</w>
eng aged</w>
ro m
di um</w>
EW G</w>
mobi le</w>
dea ths</w>
sec tion</w>
sugges tion</w>
gefähr den</w>
Indi k
ign ore</w>
M ehr</w>
bevor stehenden</w>
deut sche</w>
Präsidi um</w>
So vi
off ering</w>
über mitteln</w>
obser ved</w>
gewäh lten</w>
Parla menten</w>
ar ab
En d
extra ordinary</w>
lie genden</w>
kre is</w>
system en</w>
ar tige</w>
Bar nier</w>
er b
er es</w>
mün dliche</w>
unanim ous</w>
pre dic
fai th</w>
qual ifications</w>
Beschäftig ten</w>
gran ten</w>
wi es
Z ur
Mehr wert</w>
Verän derung</w>
her stellung</w>
mitt lung</w>
Geschlech ter</w>
basi cally</w>
Ob viously</w>
de pri
congratul ations</w>
mäß igkeit</w>
Vizeprä sident</w>
4 7</w>
w ski</w>
Spe zi
ö st
weit aus</w>
6 7</w>
her auszu
L ohn
Transp ort
Anrei ze</w>
m em
demonstr ates</w>
leg ed</w>
nah e</w>
Peti tions
on y</w>
wid ely</w>
fru it</w>
Stand punkte</w>
Kür ze</w>
beiträ gt</w>
regar dless</w>
H u
Gener ationen</w>
Wachstum sp
Tragö die</w>
Flu ghäfen</w>
C hi
procu rement</w>
Ver lust</w>
hau shal
territ ories</w>
journ alists</w>
Baron ess</w>
an g</w>
be weisen</w>
listen ed</w>
with draw</w>
Di ff
pak et</w>
höch st</w>
rec yc
s mus</w>
stu dents</w>
divi ded</w>
ri k</w>
5 1</w>
telec ommunications</w>
o red</w>
organ ise</w>
Verantwor t
per mit</w>
comm it</w>
gele is
tre at</w>
nah m</w>
under take</w>
Bosn ia</w>
setz ungs
k ann
sus pec
ver wir
exis tiert</w>
Gen au</w>
beg an</w>
dri vers</w>
gewis ser</w>
Engl ish</w>
li erten</w>
gest altung</w>
C entre</w>
einf ache</w>
environment ally</w>
zu tage</w>
im men
fol glich</w>
sichti g</w>
under taking</w>
er setzt</w>
gener ations</w>
berech tigt</w>
Zim babwe</w>
F utter
h s</w>
unterbro chen</w>
fes ten</w>
ein sch
mas si
Milosevi c</w>
est y</w>
low s</w>
deter i
gegensei tige</w>
Can ada</w>
gesp ielt</w>
pf lan
tot al
Fron tex</w>
ab gesehen</w>
tra gs
associ ations</w>
auf s</w>
prevent ed</w>
de fiz
m ere</w>
acces sible</w>
erzi elten</w>
ten der</w>
d ance</w>
mit zu
visi ble</w>
elektron ischen</w>
dig it
de t
Americ ans</w>
wur fs</w>
wid men</w>
Stra ßen</w>
r ant</w>
frequ ently</w>
Ge brauch</w>
ge achtet</w>
st ing</w>
cle an</w>
z enten</w>
will kommen</w>
ch ain</w>
S A
V it
Eurost at</w>
Tim or</w>
Informations gesellschaft</w>
En ts
verm ieden</w>
E R</w>
rit ts</w>
enttäu scht</w>
appe ared</w>
zu r
auf bauen</w>
har t</w>
necess ity</w>
Su che</w>
um so</w>
st ab
Wissen schaft</w>
gh ten
t emp
coher ence</w>
erneuer bare</w>
promot ed</w>
Bo den</w>
ster ben</w>
wirk samen</w>
aufzu bauen</w>
supp lies</w>
Territ ori
de ep</w>
konstru ktiven</w>
ern ste</w>
Vertre tung</w>
behaup tet</w>
glie derung</w>
Ver letzungen</w>
Sing le</w>
er weisen</w>
Haup tz
k ehol
staat licher</w>
ne y</w>
stu ffs</w>
Proz ent</w>
parlamentar ische</w>
em o
C as
on i
Be urteilung</w>
begrün det</w>
eini gt</w>
verän dern</w>
anges proch
auf er
h our</w>
ei ll
Schick s
Kon zentr
ges ellschaften</w>
no body</w>
öff nen</w>
ser ved</w>
eröff net</w>
bel ong</w>
ti ous</w>
se ek
0 .
S he</w>
ge be</w>
be denken</w>
bin den</w>
i ko</w>
Dec lar
ro ute</w>
Cha ir
uner lässlich</w>
present ation</w>
Konfli kt
Nachbarschafts politik</w>
p ed</w>
transi t</w>
schritt weise</w>
k ür
N onetheless</w>
d licher</w>
Zu ge</w>
colle ction</w>
Haushalts jahr</w>
cont acts</w>
ursprün glich</w>
m ess
exter nen</w>
an st
Sch reiben</w>
contro versi
eig n</w>
cou ple</w>
kehr t</w>
Europ a
N eben</w>
re ported</w>
contra ct</w>
Par is</w>
Da für
ss er</w>
Dafür halten</w>
F ris
isch ung</w>
unterschei den</w>
Rech tsp
Er gän
stitu tion
IG C</w>
inn ere</w>
Ä gyp
sen ding</w>
abstain ed</w>
Unternehmen s
mitg lied</w>
direc ted</w>
Ver stöß
Haiti </w>
organis ierten</w>
Mi grations
man i
sprü che</w>
gra ben</w>
E valu
hoh er</w>
pla ys</w>
Vor wand</w>
in wie
ali tion</w>
5 6</w>
ger ichtsh
par ents</w>
Al les</w>
Wil le</w>
Sub ventionen</w>
do ku
rein force</w>
Existen z</w>
ehr ter</w>
altern atives</w>
fore sts</w>
rah mens</w>
interess ant</w>
fort gesetzt</w>
mo ved</w>
sincer ely</w>
organi z
Washing ton</w>
hier für</w>
tr ation</w>
krie g</w>
stri ke</w>
benefi cial</w>
Prä sen
ich er</w>
Fäh igkeiten</w>
di gungen</w>
Finn ish</w>
nütz lich</w>
s qu
zugän glich</w>
Volks wirtschaften</w>
erfolgre ichen</w>
strug gle</w>
Netz </w>
Altern ativen</w>
angekün digt</w>
vorsch lägt</w>
effici ently</w>
Kommunik ations
be enden</w>
Lateinameri ka</w>
pursu ed</w>
er a
Secon d</w>
Quali fik
sum mar
Erinn erung</w>
Exper ten</w>
pel ine</w>
ver deut
uni que</w>
inform al</w>
occ ur</w>
y le</w>
kriti siert</w>
f öder
An pass
unter liegen</w>
beschleun igen</w>
k örper
mitt ler
sover eign</w>
shor tly</w>
zur zeit</w>
retari at</w>
m ale</w>
ser ving</w>
opp el
Mo st</w>
Cot on
offen kun
Sch la
fer enzen</w>
cust om
ermu tigen</w>
EG -
Sol lte</w>
post al</w>
demograph ic</w>
H y
ethn ischen</w>
techn ologie</w>
Außen grenzen</w>
tal ked</w>
Krä ften</w>
clar ification</w>
Nich tregi
harmon ised</w>
lich sten</w>
krä ften</w>
radic al</w>
Grund lagen</w>
p ush</w>
tan gible</w>
ver teilt</w>
Mer co
re lie
wach sen</w>
clear er</w>
wel t</w>
Präsen z</w>
st off</w>
ab zielen</w>
rechtfer tigen</w>
Declar ation</w>
Mein ungen</w>
f licht</w>
gesell schaftlichen</w>
Arznei mittel</w>
Aus sagen</w>
ta g
sh e
di vision</w>
P le
Peti tions</w>
auf rech
verschieden er</w>
sor gt</w>
di ert</w>
sign ing</w>
sol ved</w>
conven tions</w>
Her an
D ass</w>
Moldo va</w>
ish ment</w>
mittl ere</w>
texti le</w>
Groß teil</w>
Opf ern</w>
Minder heit
Ob jec
distinc tion</w>
su r</w>
Nichtregi erungs
V ot
tim ely</w>
col lap
Verb rech
Fer r
einzu gehen</w>
fal sche</w>
es ter</w>
beglück wünsche</w>
der ungsan
defin ing</w>
außer gewöhn
tr um</w>
gro w</w>
Be troffenen</w>
Vor gän
bu y</w>
emer ging</w>
L icht</w>
L eh
sexu ellen</w>
Sovi et</w>
geb rau
congratul ating</w>
Alban ien</w>
Im mun
Ver stär
Aus land</w>
eill ance</w>
verfüg baren</w>
Betru gs
be wiesen</w>
enlar ged</w>
consisten cy</w>
aufrech ter
reven ue</w>
Sp ann
Stand pun
over -
da ssel
serv ativen</w>
C oh
thir d-
Dar in</w>
st ations</w>
fac to</w>
dassel be</w>
chem ical</w>
portugi esischen</w>
approxim ately</w>
techn isch</w>
vehic le</w>
w ände</w>
ausge arbeitet</w>
K ern</w>
em bo
era dic
rejec tion</w>
tor ture</w>
nor thern</w>
k aufen</w>
hei ßen</w>
b attle</w>
ro us</w>
au ßen</w>
enor men</w>
new spap
it ems</w>
oper ative</w>
bed ürf
R in
aus einander
Stu den
bei hilfen</w>
cover ing</w>
B ah
Tour ismus</w>
Joh ann
Stra ße</w>
ex t</w>
respec ting</w>
Aus übung</w>
exclu sively</w>
ref use</w>
vol um
we ich
ic als</w>
Koh len
blo ck</w>
no ise</w>
R ub
ti scher</w>
po or
ssel t</w>
hel pf
a il</w>
erfolgre iche</w>
ob servation</w>
k rank
trans -European</w>
po ll
da vor</w>
wer tung</w>
An y</w>
Pf lichten</w>
serv ative</w>
Hoch schul
low -
Che chn
str enge</w>
Bra sili
J edoch</w>
Ver sicherungs
cho ices</w>
unterstü tz
erhe ben</w>
hi li
bla me</w>
ver handeln</w>
me is
nahe zu</w>
EC HO</w>
mar king</w>
un ions</w>
Rede zeit</w>
hoh em</w>
al ongside</w>
OEC D</w>
ch -
drän gt</w>
Verhaltens ko
lä ß
erk annt</w>
Rom e</w>
beg leit
judg ment</w>
Kris en</w>
sy n
Sch n
S ter
cont am
- Bericht</w>
stric tly</w>
2 .
Gesprä chen</w>
beit re
i or</w>
a i</w>
pp ed</w>
E very</w>
consul ted</w>
Chechn ya</w>
controversi al</w>
ko sten
w indi
tro ops</w>
in i</w>
pres sing</w>
H IV</w>
rech tlich</w>
wiederhol e</w>
w unden</w>
percen tage</w>
Entschließungsan träge</w>
ungsp eriode</w>
hi elt</w>
st a</w>
sc ep
al on
Rechts sicherheit</w>
P au
g ling</w>
dis appointed</w>
sp orts</w>
Woh n
Untersuch ungs
Th eir</w>
W ein
K u
simpli fy</w>
Ver sprechen</w>
con i</w>
har m</w>
bekräf tigen</w>
al ed</w>
t less</w>
L ö
appar ent</w>
zusammenzu arbeiten</w>
hier zu</w>
isti sch</w>
Egyp t</w>
v ent
bew ahren</w>
m as</w>
surv eillance</w>
Welthandel sorganisation</w>
Stat ute</w>
Arme e</w>
voll ständigen</w>
hoh es</w>
pre fer</w>
ber g</w>
radi k
mer hin</w>
organis ierte</w>
be wirken</w>
Fak ten</w>
Schu ld</w>
tradition ellen</w>
K at
histor ische</w>
geo graf
W in
Besch werden</w>
Stat ut</w>
ühr en</w>
An lagen</w>
dist ingu
far -
be gun</w>
den cy</w>
Solidar itäts
loo ks</w>
c entr
def ending</w>
unanim ity</w>
israel ischen</w>
der e</w>
er suchen</w>
harm ac
O therwise</w>
Vietn am</w>
t ally</w>
regi mes</w>
re di
em br
A le
M s</w>
rul ing</w>
aff ord</w>
en du
des irable</w>
four th</w>
fron ti
Li ke</w>
sp anische</w>
crop s</w>
genau er</w>
stü tzen</w>
EL D
ri d
S par
ausführ lich</w>
Fisch ere
helpf ul</w>
Gebäu de</w>
answer ed</w>
0 1</w>
person nel</w>
Rahmen bedingungen</w>
lo ans</w>
is ierungs
Verantwor tlichen</w>
moder nen</w>
einzu halten</w>
str in
perspec tives</w>
eigen es</w>
öff nung</w>
Zer stör
schaft licher</w>
Diff er
Umstän de</w>
, 000</w>
Jugosla wien</w>
jur is
zw eck
Dele g
tig ungs
ord ed</w>
F öder
Sitz ungen</w>
s low</w>
legisl ativen</w>
199 1</w>
bil d</w>
de dic
Som it</w>
w ater
lang sam</w>
da hin
Luft fahr
threaten ed</w>
dn ess</w>
na ment
S IS</w>
lossen e</w>
lok ale</w>
Bew us
Vor der
si x
mu ts
schrän ken</w>
be zeichnen</w>
m äh
Angeb ot</w>
Markt wirtschaft</w>
th ilfe</w>
accep tance</w>
occup ation</w>
Somm er</w>
Plan ung</w>
Tun es
schaf tsp
eigent liche</w>
intensi v</w>
W est
z y
s me
Rahmen s</w>
Erfol ge</w>
jud ge</w>
Kon vents</w>
en ger</w>
inv ite</w>
nüpf t</w>
er nen</w>
re placed</w>
t ative</w>
Brazi l</w>
C y
f än
le hnt</w>
l ers</w>
einzi g</w>
An wesenheit</w>
n ar
T om
ameri kanische</w>
re vi
gere chte</w>
Flugges ellschaften</w>
Medi ka
Kan ada</w>
Fre unde</w>
campaign s</w>
in habit
K ürz
mis sing</w>
gefähr lichen</w>
for schung</w>
distribu ted</w>
7 1</w>
medi um</w>
compe te</w>
beru hen</w>
kes tein</w>
verrin gert</w>
min e</w>
Hil fen</w>
str ichen</w>
Palest ine</w>
e kt</w>
über sch
spartn er</w>
Da vi
Sozial politik</w>
C ro
hin weg</w>
Bol kestein</w>
sp ring</w>
ge habt</w>
join ing</w>
wom an</w>
EC O
vor n</w>
lie fer
Wichti g</w>
E duc
gh t
Sin d</w>
grün det</w>
Dring lichkeit</w>
Zusammen setzung</w>
lan ges</w>
ergän zen</w>
vol lem</w>
per mitted</w>
Bosn ien</w>
beginn t</w>
y our
Lit auen</w>
versi ties</w>
g otten</w>
0 2
re yer</w>
li fer
Pap ier</w>
proc ed
Hins ichtlich</w>
refle ction</w>
Zu gangs</w>
kap az
US D</w>
An gehö
Coh es
ima ge</w>
20 .</w>
Einzel heiten</w>
korre kt</w>
Men sch</w>
integri erten</w>
con servation</w>
Grün dung</w>
Cohes ion</w>
pursu ant</w>
Gü ter
Kom it
ens hr
fri end</w>
mar gin
erklär te</w>
benefi ci
experien cing</w>
tion ally</w>
Erzeu gung</w>
la cking</w>
Po et
mi grants</w>
Vor stellungen</w>
sch auen</w>
Ab sichten</w>
Ver sorgungs
ir ing</w>
zu verlässi
sa gi
your self</w>
Vis um
kriti sch</w>
kontin u
Fol glich</w>
assess ments</w>
gen o
con fusion</w>
An hang</w>
k ter</w>
Verstär kung</w>
Schicks al</w>
a to</w>
categor ies</w>
ra ises</w>
restric t</w>
ref used</w>
dis cre
5 7</w>
Inter vention</w>
Er st</w>
wid met</w>
Schluß folgerungen</w>
A z
sta kehol
u ung</w>
g barkeit</w>
w under
amtier ende</w>
mi d-
tief st</w>
Can c
hom o
re act</w>
jäh rige</w>
ungsin stru
hü tung</w>
den tly</w>
tradi tions</w>
ell it
vor aus</w>
Inte grations
lü ssen</w>
no ti
Rent en
Poet tering</w>
chin esischen</w>
ne o
re conci
beträch tliche</w>
Nach dem</w>
wünsch enswert</w>
Sü den</w>
Ein wände</w>
gefähr liche</w>
ban king</w>
genie ßen</w>
Lu f
zu tiefst</w>
Sch o
ökonom ische</w>
Def ence</w>
im per
bege gnen</w>
sau ber
S O
multi -
Industrie politik</w>
lit er
far ms</w>
wir ft</w>
w in</w>
p harmac
R el
El tern</w>
techn ologische</w>
Vorbe halte</w>
N ä
N ob
i op
fe a
Nichtregierungs organisationen</w>
. -</w>
zunehmen de</w>
G ot
Fahr zeuge</w>
le in</w>
ch ter</w>
l iste</w>
Kategor ie</w>
Y our</w>
küm mern</w>
B au</w>
ver wirklichen</w>
ge klärt</w>
wachsen den</w>
ge plant</w>
re ti
Beitritts verhandlungen</w>
m icro
dra sti
d. h.</w>
for gotten</w>
ab kommens</w>
Flüchtling s
V ene
hinzu weisen</w>
seek ers</w>
rail ways</w>
schn elle</w>
frei ght</w>
resu med</w>
M ün
an sehen</w>
Invest ment</w>
mar g
Jahrhunder ts</w>
derar t</w>
gratu liere</w>
im posing</w>
Konta kte</w>
Ori enti
at ur
am a</w>
vorange gangenen</w>
sho wed</w>
kontrol len</w>
Unser er</w>
Mit wirkung</w>
Fischere is
Aus richtung</w>
be gangen</w>
thresh old</w>
gri ff
geb lieben</w>
erweit ert</w>
Mittelme er</w>
einfach er</w>
schen ken</w>
aufrechter halten</w>
prä sent
organiz ations</w>
Kern energie</w>
s ales</w>
durch schnit
ophob ia</w>
kontinu ier
T wo</w>
emis sion</w>
impe tus</w>
G lück</w>
Po sselt</w>
consequ ently</w>
gem essen</w>
mo tiv
F il
Gel tungs
blo od</w>
integr ate</w>
highli ghts</w>
por te</w>
c s</w>
zügi g</w>
Est on
leich ter</w>
ges tr
pop ular</w>
Fischerei abkommen</w>
author isation</w>
dis agree</w>
W o</w>
P S</w>
acc eler
form ation</w>
proced ural</w>
B rie
M el
N ei
Wider stand</w>
amtier enden</w>
il s</w>
hous ing</w>
Educ ation</w>
Inte gr
er staun
lok aler</w>
Wil l
sprech end</w>
Stell en
re tar
us ually</w>
reich er</w>
kan en</w>
st em</w>
par tei
gemein schaftliche</w>
jün gste</w>
Ein es</w>
aus geführt</w>
zerstör t</w>
k amen</w>
redu ziert</w>
Minderheit en
Sim babwe</w>
stärk eren</w>
ú n</w>
wes tern</w>
Fre it
contrib uting</w>
m ert</w>
Sch luß</w>
auszu üben</w>
obser vers</w>
phil osoph
eventu ell</w>
limin ary</w>
Eur at
Tunis ia</w>
Geh eim
6 8</w>
sit zen</w>
se as</w>
em and</w>
veran la
F rank
Un sicherheit</w>
ein nehmen</w>
beitre ten</w>
follow -up</w>
p ush
sup ran
Sitz ungsperiode</w>
neh in</w>
emis sionen</w>
Kamp agne</w>
Landwir ten</w>
zu mal</w>
sli ghtly</w>
Hoh eits
pos t</w>
Mex ic
U C
so ever</w>
d ating</w>
Haf en
der ing</w>
character istics</w>
5 .</w>
Unterdrück ung</w>
Gewerk schaften</w>
he tor
pre ventive</w>
ob serve</w>
lo sing</w>
s tic</w>
qu is
x es</w>
tsch ech
keines falls</w>
Durch führungs
gi k</w>
unab ding
benu tzt</w>
ab zielt</w>
it z</w>
hilfre ich</w>
inter im</w>
Stellung nahmen</w>
con stra
under lying</w>
a sion</w>
Emis sions
Reg arding</w>
Konfli kts</w>
weiter zu
, 5</w>
viol ent</w>
to x
exam ination</w>
Merco sur</w>
m ein
S ri</w>
Belast ung</w>
er ende</w>
di k
Man agement</w>
system atic</w>
Bedürf nissen</w>
Eff ek
d ischen</w>
Eri ka</w>
pro vo
appro aches</w>
Verzö gerungen</w>
contin uation</w>
Mich el</w>
Wieder herstellung</w>
B or
Eur or
1 -
residen ce</w>
unge achtet</w>
Auffor derung</w>
cla ss</w>
dramati c</w>
Bil anz</w>
er stellt</w>
La sten</w>
Reguli erungs
sta in</w>
Entwicklungs politik</w>
si t</w>
ri ed</w>
par ad
S te
frei willi
cir cul
Stei gerung</w>
á n
Gemeinschafts recht</w>
Europä isches</w>
regul arly</w>
ed n
I mpf
oh nehin</w>
d den</w>
ar bit
Vorder grund</w>
Aus gang
eh n</w>
ide al</w>
bewer tet</w>
Ver lu
5 2</w>
fähi ge</w>
ge fallen</w>
gekenn zeichnet</w>
integr ity</w>
c as
einf achen</w>
198 9</w>
ich s</w>
Selb st</w>
wh at
REAC H</w>
represent ing</w>
ci a</w>
I A</w>
equi valent</w>
hand ling</w>
jähr lichen</w>
ein her
kon sul
Pat ent
th ro
abil ität</w>
not ably</w>
A h
hö her</w>
s tic
Hand lungen</w>
justi fication</w>
Ban k
sub jec
yn n</w>
H on
prot est</w>
sc en
what soever</w>
hop ed</w>
n esses</w>
mer k</w>
maß geb
Dienst stellen</w>
Ab fälle</w>
Per sön
Ernähr ungs
Ple ase</w>
wä sser</w>
9 3</w>
Sti ll
Ber ichti
würdi g</w>
restric tive</w>
Ser vices</w>
f it</w>
achie vements</w>
fail ing</w>
accord ingly</w>
extre mis
wach en</w>
de z</w>
ö m
zunehmen den</w>
destro yed</w>
In nen
an i</w>
ben de</w>
ambi tions</w>
Gem äß</w>
tie gen</w>
dis par
dre i
Auf sichts
Lebens mitteln</w>
Kohä sion</w>
T ali
ch ris
klar er</w>
20 -
bann ed</w>
beur teilen</w>
vorzu schlagen</w>
danger s</w>
soci o-
Religi ons
ges u
pre sident</w>
Infra strukturen</w>
man aging</w>
im ported</w>
ma kro
Tats ächlich</w>
T r
join ed</w>
f lows</w>
lan ger</w>
beeinflus sen</w>
val id</w>
wo zu</w>
ou ter
ver stoßen</w>
F lä
sub sequently</w>
tä r</w>
soli d</w>
all mäh
organis ieren</w>
W edn
ma r</w>
Zwan gs
Sozial demokratischen</w>
envis aged</w>
Produ kt</w>
s outh</w>
cul tures</w>
chap ter</w>
Y ear</w>
mer kt</w>
Kon jun
Behin derungen</w>
transatlan tischen</w>
pre liminary</w>
e gal</w>
Straf gerichtsh
fi res</w>
Phän omen</w>
kon sequ
excep tions</w>
Kap ital</w>
wo für</w>
Bei m</w>
ag anda</w>
spar ungen</w>
klar stellen</w>
Asi en</w>
vor sitz
Solidar ity</w>
verank ert</w>
scrutin y</w>
t y-
Kompromis s
le z</w>
schul digen</w>
li f
coast al</w>
p ing</w>
compar ison</w>
lifer ation</w>
t at</w>
un ification</w>
sub sequent</w>
who le
. &apos;</w>
Le banon</w>
gu il
ch tungen</w>
9 1</w>
particip ating</w>
with draw
Ar muts
äuß erung</w>
diesel be</w>
Mit two
sa d</w>
ne tze</w>
en er</w>
L om
kon stitution
del s</w>
advan ced</w>
Tradi tion</w>
surro unding</w>
ist ently</w>
re conciliation</w>
outer most</w>
ein richtungen</w>
ver schaffen</w>
accoun tability</w>
infra structures</w>
I A
deleg ations</w>
k ar
it ly</w>
Tats achen</w>
Euro- Mediterranean</w>
Rechts rahmen</w>
Wedn esday</w>
Me er</w>
empfeh len</w>
riteri um</w>
gr ati
defin ieren</w>
mär kten</w>
rück en</w>
Ägyp ten</w>
Min ute</w>
ke en</w>
confi dent</w>
ra d</w>
no by
Brasili en</w>
gewün scht</w>
au p
short- term</w>
mo vements</w>
si m
ausgewo gene</w>
gesch ä
st ation</w>
Subsidiaritätsp rinzip</w>
chem icals</w>
offizi ellen</w>
BS E-
res istance</w>
en ded</w>
ätz ungen</w>
6 6</w>
Verbin dungen</w>
con vi
er ei</w>
sto ckung</w>
er -
Al low</w>
Le istung</w>
ex changes</w>
Beitritts kandi
zu gelassen</w>
perfec t</w>
for cing</w>
ck ed</w>
herr schen</w>
broad cast
gew onnen</w>
Fol gendes</w>
hil ft</w>
mi ß</w>
u g
g ische</w>
Immun ität</w>
ass urance</w>
bein halten</w>
noby l</w>
concentr ation</w>
J er
vi gor
E co
italien ische</w>
hol ung</w>
no tice</w>
er mäch
ques tion
fun ctions</w>
ver e</w>
sent ence</w>
inc en
bor n</w>
mand atory</w>
zwan gs
un nö
stra frech
Ern ennung</w>
Bru t
t á
kön ne</w>
Commun ist</w>
selb st
eingeschrän kt</w>
AL DE</w>
ges to
Arbeits weise</w>
el a</w>
schwier iger</w>
it ably</w>
Sozial partner</w>
schlim m
ror s</w>
le ge</w>
l ings</w>
jewei ls</w>
inhabit ants</w>
Proje kts</w>
stöß t</w>
Bürger rechte</w>
ehr t</w>
d ler</w>
li z
Ver öffent
balan ces</w>
Palästin a</w>
vers ary</w>
er hoben</w>
vorrangi g</w>
Städ te</w>
convi ction</w>
w asser</w>
Chair man</w>
an streben</w>
is lam
einzu richten</w>
spe ktiven</w>
durch setzen</w>
disp utes</w>
ga ined</w>
uni versities</w>
er ror</w>
fo ssi
ver he
P rop
PH AR
provi ders</w>
advoc ate</w>
höch sten</w>
drit tens</w>
in no
fa ire</w>
li ked</w>
st rit
Nordi c</w>
erleich tert</w>
W äl
sign s</w>
ad ul
re formen</w>
Mon day</w>
anzu gehen</w>
Innov ationen</w>
sch rei
adequ ately</w>
St unde</w>
H ä
embar go</w>
i um
ver teilung</w>
neighbour hood</w>
Democ ratic</w>
tain s</w>
sp ür
Ge bur
n ische</w>
Fern sehen</w>
c utting</w>
incorpor ate</w>
dec reas
Mu gabe</w>
mis takes</w>
Finanzi elle</w>
gä be</w>
bedau re</w>
eventu ally</w>
sü dlichen</w>
Einschrän kung</w>
D ynam
angehö rigen</w>
ho sp
Kompro miß</w>
gene tically</w>
anzu passen</w>
Gewähr ung</w>
Präsiden tschaf
d äm
Iraq i</w>
er freu
shaushal t</w>
stat ute</w>
we a
Kon z
Ein nahmen</w>
Gleich wohl</w>
so zusagen</w>
Objec tive</w>
umfas sen</w>
führ er</w>
ma chten</w>
durch gesetzt</w>
versch lech
C rimin
ne tz
infrin gement</w>
z ell
Liby a</w>
reduc tions</w>
i ous</w>
thous and</w>
verpflich ten</w>
diesbezü glichen</w>
counter f
Vorsitz ende</w>
tä tigen</w>
sich eren</w>
Ex port
Kön nen</w>
zah lungen</w>
Pas sagi
Tunes ien</w>
ci de</w>
por no
Kommiss ars</w>
T ruppen</w>
ag nen</w>
6 00</w>
Ein stimm
safegu arding</w>
Lo gik</w>
i ed
perpe tr
man chen</w>
Spann ungen</w>
A c
olog ischer</w>
experi ences</w>
Vor feld</w>
fac tory</w>
an gehören</w>
monit ored</w>
a spir
Ur sache</w>
fi </w>
Beh aup
conv in
igno red</w>
i ken</w>
sugges ts</w>
er stre
G 20</w>
kontrol l
in al</w>
dri ve</w>
eigent lichen</w>
ic ken</w>
Institu te</w>
ci des</w>
War en
ger weise</w>
chs el</w>
so il</w>
Dan ke</w>
ann i
vic tim</w>
res ource</w>
er a</w>
ab uses</w>
ier ter</w>
wei le</w>
rati fy</w>
fe ars</w>
u ted</w>
vis ited</w>
Studen ten</w>
Gemeinschaft sebene</w>
Tschetschen ien</w>
ver bieten</w>
Glau ben</w>
ausgewo gen</w>
Arbeit geber</w>
beantra gt</w>
organis iert</w>
W ritten</w>
atta ched</w>
Slo wen
sta ats
strä ger</w>
den heit</w>
regel ungen</w>
6 2</w>
Sk and
inwie weit</w>
di ver
Syri a</w>
convin ce</w>
vereinf achen</w>
ök ologische</w>
D ort</w>
Natur katastrophen</w>
C ould</w>
Nach mittag</w>
f en
Fris ten</w>
organ ic</w>
contain ing</w>
R ap
Flor enz</w>
human ity</w>
b us</w>
10 .</w>
st ecken</w>
überra scht</w>
Sozi alisten</w>
gestell te</w>
unter strichen</w>
teil s</w>
beru fen</w>
intelli gent</w>
Betrie b</w>
verursach en</w>
Bau ern</w>
vernünf tigen</w>
fail s</w>
y be</w>
stic k</w>
n ine</w>
S em
pri me</w>
ol der</w>
person en
sa ving</w>
stre icht</w>
inn er</w>
blin d</w>
in side</w>
trans l
tor ate</w>
siden tin</w>
AS EA
Ziel setzung</w>
hund red</w>
Rechn ungs
schul dig</w>
T ar
vi gi
Ser bi
Miss brauch</w>
Be kann
dec entr
bre ach</w>
com promises</w>
schwed ische</w>
gan z
dahin gehend</w>
cat ch</w>
neg ativ</w>
Pu tin</w>
Gesetzgeb ungs
s lau
Mach t
techn ischer</w>
arbit r
b te</w>
D erzeit</w>
ats on</w>
ar di
geprä gt</w>
Aus gleich</w>
Millenn ium</w>
ver bot</w>
analy se</w>
Steu erung</w>
pp en</w>
listen ing</w>
pursu ing</w>
W atson</w>
regi erung</w>
stand ardis
le benden</w>
mo dels</w>
ira k
Wall ström</w>
G al
Inter ne
D ra
Bir ma</w>
ab road</w>
J arz
ss icherheit</w>
Cor bet
200 0-
for t</w>
k i
Qu ar
Lei d</w>
Ein kommen
accep ting</w>
zeu g
sch la
Nordi r
fur thermore</w>
6 3</w>
bor ne</w>
Einzel nen</w>
Haushalts ausschusses</w>
Stü ck</w>
Meinungs äußerung</w>
Jarz embo
stren gen</w>
conclu des</w>
Ausschü ssen</w>
p tion</w>
ft ware</w>
bekann tlich</w>
Säu le</w>
invest ors</w>
Sim il
gewis s</w>
dro ht</w>
acknowled ged</w>
V ir
zw öl
ignor iert</w>
In sofern</w>
ir regular
erweiter ten</w>
Umstruktur ierung</w>
b a</w>
Simil arly</w>
solidi erung</w>
off ices</w>
dec ent</w>
Th rou
wenig sten</w>
de ad</w>
ein m
whole hear
E v
Fol gen
strin gent</w>
Kom ple
Al ters
leg te</w>
sib il
Instru menten</w>
gipf el</w>
incen tive</w>
F if
no tes</w>
endu ms</w>
Z eu
14 2</w>
er stellen</w>
Gan zes</w>
Zusammen halts</w>
bel gischen</w>
Ex tre
Crimin al</w>
zw ischen
fried lichen</w>
ge kehrt</w>
Zentr um</w>
imp ris
al beit</w>
appel liere</w>
dän ischen</w>
verstär kten</w>
withdraw al</w>
fried liche</w>
i ka</w>
stakehol ders</w>
pl au
juris diction</w>
Dar le
al a</w>
Di plom
and -
ati sche</w>
kün st
ic kt</w>
k at
Weiter entwicklung</w>
expan sion</w>
Canc ún</w>
sol di
Klu ft</w>
D as
Mittwo ch</w>
prü f
H aus
gen ehm
bir th</w>
anspru ch
P A</w>
schreit en</w>
w ahr</w>
eröff nen</w>
drop </w>
5 8</w>
st one</w>
reib ungs
z y</w>
genau e</w>
durch geführten</w>
sp üren</w>
resol ving</w>
nam es</w>
welt weite</w>
Isla m</w>
Ab o
Urspr ungs
finanzi eller</w>
investig ations</w>
Un regelmäß
z icht
Rück gang</w>
den ied</w>
c atastrop
Aus legung</w>
an k
the ore
i on
b acking</w>
tier enden</w>
bestimm ung</w>
Sat z</w>
S an</w>
demon stri
an bieten</w>
w ages</w>
Johann es
einzu leiten</w>
F ab
sym bol
exper tise</w>
Anwendungs bereich</w>
sympa thy</w>
G et
kon zep
refuge e</w>
transe uropäischen</w>
imm unity</w>
Sa al</w>
H ence</w>
f low</w>
Mitentschei dung</w>
ö l</w>
ri g
mot or</w>
foun dation</w>
effek tiver</w>
G F
Liber als</w>
ra sche</w>
dist ance</w>
crimin als</w>
ge ehrter</w>
Lan g
anni versary</w>
Ziel s</w>
Jarzembo wski</w>
fin dung</w>
kompli ziert</w>
program ming</w>
as sets</w>
Israel is</w>
9 4</w>
B ranche</w>
K no
he ads</w>
inv ited</w>
Lebens qualität</w>
Flüchtlin gen</w>
H om
L ü
stream ing</w>
re affir
ation stechn
erwar te</w>
riter ion</w>
Regi mes</w>
at mo
X </w>
stell ungs
Zerstör ung</w>
empf oh
einsch lä
Y outh</w>
beruf lichen</w>
an wal
Nor den</w>
fol gerung</w>
no tic
paragrap hs</w>
la h</w>
Wer den</w>
consoli dation</w>
Demokrati sierung</w>
Sec retar
Dynam ik</w>
B is
zah lung</w>
leng th</w>
erweit ern</w>
Religi on</w>
wom it</w>
Tex tes</w>
Col om
Feh len</w>
pr ere
as sum
abzu lehnen</w>
Sit z</w>
c riterion</w>
progre ssive</w>
Energiever sorgung</w>
Guan tá
Guantá nam
n utz
AKP- Staaten</w>
5 4</w>
unilater al</w>
Person al
sch ed
gn er</w>
bekämpf t</w>
A ir
ent ei
ü ch
s un
An gol
Sch eitern</w>
genehmi gt</w>
fif th</w>
neu n</w>
nieder ländischen</w>
Treibhaus gas
unver zicht
Haushalts kontrolle</w>
Tex til
prere quis
Völk ern</w>
abgesch afft</w>
accur ate</w>
ven tions
in disp
S ome
y- General</w>
non- governmental</w>
Ungleich heiten</w>
dru ck
fort zusetzen</w>
mean time</w>
Feh l
L et
Kohäsions fonds</w>
p her
fes thalten</w>
Li i
Ver schie
S achen</w>
exam ining</w>
vis as</w>
x en
Dienstleistungs richtlinie</w>
recogn ises</w>
ard ous</w>
Fri day</w>
tn issen</w>
ern e</w>
viel fäl
Sen sibil
Wei l</w>
lich -
exis tieren</w>
rele ased</w>
re ci
ch a
fre m
Städ ten</w>
Ö ko
ein iges</w>
M ed
Asy l</w>
feh len</w>
Priv ati
pre text</w>
Partner schafts
5 3</w>
evalu ate</w>
ig ungen</w>
em pl
pharmac eu
zurück kommen</w>
Er stellung</w>
E M</w>
Kapaz itäten</w>
geplan ten</w>
f r
bring ung</w>
ge denkt</w>
fä hr</w>
fair er</w>
p esti
ta gung</w>
mü sse</w>
cons ent</w>
Entschä digung</w>
proportion ate</w>
arri ve</w>
accoun ting</w>
GM Os</w>
ges tri
unter graben</w>
ne gle
Li banon</w>
o c
Au frech
wirk ungs
dictator ship</w>
anspruch nahme</w>
NG L
lear ned</w>
äh erung</w>
re porting</w>
Corbet t</w>
Secretar y-General</w>
We chsel
modern isation</w>
ha m
enter ing</w>
gel ung</w>
Vorbereit ungen</w>
pres sed</w>
dec line</w>
rüst ung</w>
Wh o</w>
sch u
D oppel
Einf luß</w>
kla res</w>
2 50</w>
out lined</w>
vor ge
fem ale</w>
P ir
Red ing</w>
exc ept</w>
an hand</w>
A i
Schwei z</w>
e tzen</w>
ran ging</w>
König reichs</w>
g lich
inter ne</w>
autonom y</w>
mono po
Vorsitz ender</w>
Überwach ungs
tes ten</w>
Mit bürger</w>
Lii kanen</w>
inten ance</w>
Hei m
gerich teten</w>
ungar ischen</w>
Mol d
dis man
ter haltung</w>
nachzu denken</w>
third- country</w>
coun tr
bereit zustellen</w>
Johannes burg</w>
var iety</w>
clo sure</w>
Deleg ationen</w>
reci proc
con fer
gä ste</w>
exec utive</w>
regis tration</w>
ton ight</w>
fo od
Sco tland</w>
K a
Re volution</w>
gebil det</w>
vern ach
vernach lässi
kriti schen</w>
gestr ichen</w>
stei gt</w>
multilater alen</w>
Ni emand</w>
Indik atoren</w>
Auf stockung</w>
ut zutage</w>
pl in</w>
wenig stens</w>
vo ters</w>
tei lungen</w>
Konvergen z</w>
koordin ieren</w>
- based</w>
ge fühl</w>
über legen</w>
do ssier</w>
H or
da hin</w>
den d</w>
Terror ismus
intelli gen
Sicherheits -</w>
partner ships</w>
Sloven ia</w>
Mold au</w>
be haltung</w>
Ad ministr
Be trei
f at</w>
pro ven</w>
Ann äherung</w>
trü ger
OS Z
renew ed</w>
P hili
zi plin</w>
super visory</w>
rup t</w>
con ver
foc using</w>
s low
OS CE</w>
B illi
A cht</w>
Verzö gerung</w>
e di
Lehr en</w>
O ther</w>
T ren
c ere</w>
mittel -</w>
Mitgliedsta ates</w>
li erte</w>
ei den</w>
land wirtschaftliche</w>
in quiry</w>
virtu ally</w>
substan tially</w>
Palästinens er</w>
ma intenance</w>
religiö sen</w>
C olle
19 .</w>
run gen
An y
verz ichten</w>
r ational</w>
Jugen dliche</w>
haz ardous</w>
Schrif tliche</w>
pa in
Her kunft</w>
gradu al</w>
geh ei
ed ed</w>
tu ms</w>
deb atte</w>
Kompromis se</w>
er w
Amerikan er</w>
comple tion</w>
ge fügt</w>
hel ps</w>
verbin dliche</w>
Ver ur
fall ing</w>
t y
Vier tens</w>
fer tig</w>
Effek tivität</w>
be greifen</w>
Pf eiler</w>
Ver fas
8 9</w>
größer er</w>
r ung</w>
sin cere</w>
fan den</w>
ein bringen</w>
Über tragung</w>
re ise</w>
hop efully</w>
bes agt</w>
Nä he</w>
ro ll
all ed</w>
safegu ards</w>
GV O</w>
O omen
moment an</w>
S pen
Aufrech terhaltung</w>
scienti sts</w>
T emp
Ver suche</w>
ehr en</w>
tie f</w>
Katastrop hen
tro ub
wirksam er</w>
derar tigen</w>
qualit ativ</w>
Op tion</w>
cons istently</w>
AL DE-Fraktion</w>
Ru ij
fe atures</w>
tra in</w>
man if
interess ante</w>
pil ot</w>
Niederlan de</w>
zu geben</w>
NGL -Fraktion</w>
ther ap
Au str
Ein er</w>
W W
fo rec
finanzi ell</w>
ob servations</w>
Er rungen
endor sed</w>
Re den</w>
ap s</w>
endeav our</w>
conc ep
indic ation</w>
rese arch
beunruhi gt</w>
e ast</w>
Ausgang spunkt</w>
er y</w>
Be vor</w>
cl auses</w>
lei d</w>
Schul den</w>
In anspruchnahme</w>
consul tations</w>
human e</w>
dien sten</w>
mentari er</w>
ven th</w>
vorzu gehen</w>
form ed</w>
räum e</w>
Dec ision</w>
explan ations</w>
billi gen</w>
bewer tung</w>
es cap
S icht
de tention</w>
it es</w>
wen n
fi xed</w>
Ver hin
Bal kan
Mon tag</w>
NG L</w>
v ina</w>
wenn gleich</w>
sch em</w>
ar gue</w>
ot o-
vertre ter</w>
an merken</w>
5 0
Sü do
dra fts
star kes</w>
berech tigten</w>
ein s</w>
Gra d</w>
wh el
deut licher</w>
s eiten</w>
App ell</w>
effek tiven</w>
säm tlichen</w>
Le ben
cei ling</w>
Unregelmäß igkeiten</w>
waff ne
With in</w>
B ish
F ein
Syri en</w>
kon fli
Kl är
bürger schaft</w>
Vit or
ru f</w>
b y-
qu es</w>
T ages</w>
Ur he
ö tz
Lie be</w>
b lack</w>
land s
lea ves</w>
aus eln</w>
Bos ni
flü ssi
sel l</w>
fin ish</w>
Ratspräsiden tin</w>
T oler
Änderungsan trags</w>
se arch</w>
Sw it
ern t</w>
over whel
Ins el</w>
Stabilitätsp akt</w>
ri gkeit</w>
essen ce</w>
Schi enen
avoi ded</w>
Aus sicht</w>
T ür</w>
ver steht</w>
olog isch</w>
Konfli kten</w>
ensu red</w>
ut or</w>
ti k</w>
gel esen</w>
öff net</w>
t ari
s we
stren g</w>
Tex te</w>
ver handelt</w>
it en</w>
socio- economic</w>
Natur ally</w>
prev ail
st an</w>
Abo ve</w>
7 7</w>
Gefan genen</w>
gener ate</w>
nehm ern</w>
S ign
beeinträch tigt</w>
t ments</w>
sich ert</w>
Oomen -
Jahrzehn ten</w>
Guantánam o</w>
appar ently</w>
pl ore</w>
ergänz t</w>
fulfil led</w>
c ast</w>
commen d</w>
Euro just</w>
F on
alis ierungs
s é</w>
disast rous</w>
- Richtlinie</w>
pl ötz
b oun
se x</w>
Bei behaltung</w>
be feh
ser ves</w>
ner ship</w>
zufrieden stell
isti scher</w>
unge fähr</w>
dis advanta
S peci
fünf zehn</w>
initi ally</w>
zwan zig</w>
überwach t</w>
anerk ann
dn isse</w>
ge einigt</w>
sexu elle</w>
Liby en</w>
Gleich heit</w>
territori alen</w>
c ope</w>
voll ziehen</w>
gel ie
Ost europa</w>
Ruij ten</w>
thor ough
ate -
geis tigen</w>
Spra ch
st ory</w>
vigi l
ba res</w>
D ie
strö me</w>
produc tivity</w>
ou d</w>
der selben</w>
teil genommen</w>
Bewus stsein</w>
Kam pf
türk ische</w>
exc use</w>
D al
An griffe</w>
vor über
precau tionary</w>
gehol fen</w>
fif teen</w>
D im
ver trä
sa ktionen</w>
ein beziehen</w>
ag eing</w>
Ky oto-
Beobach tungs
g ame</w>
b adly</w>
Kredi t
geeigne ten</w>
mangeln de</w>
schaf tlich</w>
bedeu ts
Er leich
li fel
is o
far- reaching</w>
trä ger</w>
contra st</w>
ad vis
priv acy</w>
t ough</w>
norm alen</w>
Ent täu
every where</w>
lass ungen</w>
kti ver</w>
ch el
An nex</w>
exp and
wür fe</w>
Führ er</w>
An reg
l ists</w>
deu tet</w>
emer ged</w>
ge ous</w>
fli ghts</w>
Rede beit
min or</w>
gro ss</w>
mis sions</w>
Swit zer
Switzer land</w>
S il
wün scht</w>
de voted</w>
Hil f
soli de</w>
Ju gend
Mensch heit</w>
ome ter</w>
Vitor ino</w>
Kompeten z</w>
-B 4-0
7 8</w>
Kommissions mitglied</w>
be zahlt</w>
Her b
ho st</w>
Sch ot
simpli fied</w>
Klar en</w>
arbeit eten</w>
i -
Schwar z
2 1
gnis erre
In ten
Sicherheits rat</w>
wahr nehmen</w>
AL E-Fraktion</w>
Tradi tionen</w>
en ables</w>
Be tre
hör t</w>
v able</w>
Größ e</w>
Lin ken</w>
sup pli
forder te</w>
re mark
Iran ian</w>
Inter nationale</w>
trans fers</w>
is ms</w>
Natur a</w>
spar en</w>
zwöl f</w>
Ergän zung</w>
be achten</w>
condi tional</w>
Z one</w>
ec o
tum n</w>
inves tiert</w>
Eston ia</w>
metho de</w>
weit reich
pres cri
bar bar
ow nership</w>
reser ves</w>
exclu sive</w>
besei tigt</w>
Coton ou</w>
H än
Wissenschaft ler</w>
ag u
k m</w>
Dritt länder</w>
ter min
Beschäftigungs politik</w>
Beobach ter</w>
or ds</w>
me ets</w>
eh ende</w>
defic its</w>
W ould</w>
üro s</w>
unter streicht</w>
gew ahrt</w>
irregular ities</w>
Sü dafrika</w>
m in</w>
Rub rik</w>
Aus bildungs
glob aler</w>
ab geordne
des ign</w>
den selben</w>
Spiel raum</w>
Al ter</w>
sec tions</w>
arri ved</w>
au k
sched ul
ver wand
ris k
t esting</w>
mit ting</w>
liber alen</w>
as ing</w>
Tex ti
shi pping</w>
dama ging</w>
hervor zu
f ought</w>
explic itly</w>
pa ys</w>
ver trauen</w>
z á
t ö
shi ft</w>
gen es</w>
com it
kl icht</w>
author ised</w>
Se e</w>
Nordir land</w>
Veröffent lichung</w>
15 .</w>
horizon tal</w>
pre is
la ying</w>
in equ
Oomen- Ruijten</w>
für chte</w>
stru ck</w>
boo k</w>
begrü ß
rigor ous</w>
an hal
umfangre iche</w>
destro y</w>
sel ber</w>
verwir klicht</w>
en ced</w>
par tial</w>
gegeben en</w>
L ernen</w>
automati sch</w>
viel es</w>
acc used</w>
coun ci
tz ungs
über mittelt</w>
Empf än
Verhaltensko dex</w>
ver wen
po sts</w>
Aus gleich
Einschrän kungen</w>
Sol daten</w>
den y</w>
porno graph
tel ep
ver li
Sta h
effizi enten</w>
Befür wor
s sion</w>
Defiz ite</w>
Beitrittskandi daten</w>
t wi
Schen gener</w>
We g
Konzentr ation</w>
Über nahme</w>
Bedau ern</w>
tou ch</w>
tä glichen</w>
be trägt</w>
lab el</w>
defin iti
us alem</w>
Di am
tackl ed</w>
aus sehen</w>
f ate</w>
imper ative</w>
s cre
B om
des ired</w>
Innov ations
Schließ ung</w>
ge än
kur zen</w>
l y-
recommen ded</w>
ban ken</w>
ati k</w>
vorgeseh ene</w>
intensi vi
Stär ke</w>
commer ce</w>
der eg
Legitim ität</w>
vor an</w>
well en
dis tur
di verse</w>
er tes</w>
kost et</w>
audiovis u
P esti
Über schw
n omin
Ferr er
Haushal te</w>
Glob alisation</w>
österreich ischen</w>
Mexic o</w>
k lin
stor age</w>
zeit raum</w>
ko rea</w>
ne tz</w>
voranzu bringen</w>
sozi o
Haushalts mittel</w>
Gewin ne</w>
schnell st
Produ kt
tu ally</w>
volum e</w>
schle chte</w>
verwal tung</w>
peti tion</w>
t um</w>
F a
re pression</w>
Ex ek
Vene zu
hil st</w>
th al
comprehen sible</w>
rin k
au tumn</w>
kom peten
re publik</w>
W hilst</w>
Krank en
rel ative</w>
ME P</w>
car c
Gele genheiten</w>
Sol che</w>
Eng land</w>
fass ungs
einzi ges</w>
ali zed</w>
Koordin ation</w>
ausge übt</w>
Aus sprachen</w>
ECO F
Dikt atur</w>
Aus wahl</w>
ignor ieren</w>
adap ted</w>
8 6</w>
soldi ers</w>
gene tisch</w>
Lu ft</w>
M illion</w>
Verhin derung</w>
ME D
Kin d</w>
wär tig</w>
far m</w>
im merhin</w>
Gre at</w>
kriti sieren</w>
ge troffenen</w>
u til
bestra ft</w>
Ger ä
Gi bt</w>
Pre stige</w>
Ansch luss</w>
wer ks</w>
besor gniserre
Ber g
sp on
ger ingen</w>
bezo genen</w>
d el</w>
tie fen</w>
Parla mentarier</w>
D au
dar y</w>
Weiter hin</w>
stam men</w>
G as</w>
al ing</w>
Lam y</w>
den tally</w>
aufge griffen</w>
il l</w>
gere chten</w>
Aus gewo
mur der</w>
D re
own -
Verantwor tungs
Wer t
wn s</w>
cor responding</w>
AL E</w>
recyc ling</w>
la gerung</w>
differ enti
ö hnung</w>
gesu cht</w>
Erd be
ich tet</w>
ange wiesen</w>
atten d</w>
berech tigung</w>
sol e</w>
Mit te</w>
Direc tor
fundament ally</w>
es si
Sch wan
Amts zeit</w>
Fol ter</w>
bek omm
Gre mien</w>
Sum me</w>
kriti sche</w>
le u
Kur z
4 0
Asyl bewer
3 .
ru fe</w>
bezieh e</w>
Frei lassung</w>
collap se</w>
fris tig</w>
Zu gleich</w>
1 20</w>
Wald ner</w>
gesch eit
dring lich</w>
sol d</w>
conc e
So w
ü t
enshr ined</w>
zw in
dauer hafte</w>
fal schen</w>
Gü ter</w>
Geb ühren</w>
che ap</w>
Verm eidung</w>
Partner schaften</w>
investig ate</w>
exemp tion</w>
fra gi
bekann ten</w>
r unde</w>
Stellen wert</w>
Ver mark
ähn lich</w>
ob gleich</w>
ver ordnung</w>
ri eren</w>
s ale</w>
z .
S ak
K un
verstän dnis</w>
behin dert</w>
mü ßten</w>
en ever</w>
ver sammlung</w>
Th ess
Tenden z</w>
Feder al</w>
ein ges
sh ar
Chem ik
i des</w>
dauer haften</w>
Haft befeh
Gefän gnis</w>
teu er</w>
attra ctive</w>
inc redi
inspec tion</w>
ein gestellt</w>
ous ness</w>
Frei handel
sk and
Lie fer
Sch wellen
Ausgewo genheit</w>
voranzu treiben</w>
Bio kraft
prot es
win dung</w>
o v</w>
el son</w>
deliver ed</w>
statis tical</w>
consoli date</w>
is ses</w>
Lan ka</w>
sor ge
Kop f</w>
k ommission</w>
democrati sation</w>
p ac
Vizeprä sidentin</w>
b are
O li
re perc
techn ologischen</w>
air port</w>
v is</w>
ve get
gu lierung</w>
fehl ende</w>
it ze</w>
fal se</w>
Spe k
Arbeits zeit</w>
an schließend</w>
B li
Über windung</w>
Schul den
neutr al</w>
gebrau cht</w>
frie di
ch i
ig ten</w>
schlim mer</w>
dis h</w>
hom es</w>
mean ing
no tion</w>
Hin weise</w>
aus einander</w>
Res ul
Kön n
é s</w>
w on</w>
fore stry</w>
Speci al</w>
angeb oten</w>
zi tiere</w>
S A</w>
Gegen wärtig</w>
Every one</w>
auf gebaut</w>
c y
ehrgeizi ge</w>
endgül tig</w>
Reak tionen</w>
Tali ban</w>
teil zunehmen</w>
erzeu gnisse</w>
Recht setzung</w>
respon ses</w>
peri pher
5 9</w>
reperc ussions</w>
W a
Kürz ungen</w>
Zus agen</w>
ra cies</w>
gesch afft</w>
th qu
Wieder ein
open ly</w>
bru tal</w>
z. B.</w>
Blo ck
Hoff nungen</w>
food stuffs</w>
Bar ón</w>
rec ru
bürger liche</w>
qu oten</w>
statt dessen</w>
präsen tiert</w>
ein räumen</w>
Ereign issen</w>
6 1</w>
Arbeits kräfte</w>
be waffne
angesproch enen</w>
Govern ance</w>
G on
angemessen er</w>
ge wer
angeb lich</w>
gew ach
gesetz lichen</w>
se es</w>
where ver</w>
democrati cally</w>
an forderungen</w>
ex posed</w>
R est</w>
grün dlich</w>
Be weise</w>
C hile</w>
Mittel -</w>
pro liferation</w>
discip line</w>
remo val</w>
je glicher</w>
zwangs läufig</w>
Ver urteilung</w>
beeinträch tigen</w>
dio x
systemati sch</w>
läß lich</w>
sur prise</w>
anzu erkennen</w>
hö her
che ap
ab u
initi ated</w>
For m
on to</w>
n den</w>
g ast
ing ung</w>
gleich er</w>
particip ants</w>
pro stitution</w>
Erwä gungen</w>
mit geteilt</w>
bi ologischen</w>
Thess alon
lin ing</w>
Ö l</w>
ge ehrten</w>
euro s</w>
Rahmen besch
auf gehoben</w>
Krie ges</w>
Zu lassung</w>
Ferrer o-
di agno
Freit ag</w>
it ar
get ö
For st
ähn lichen</w>
war n
Ost see</w>
Prof essor</w>
T -
offizi ell</w>
lifel ong</w>
Z ins
ehrgeizi gen</w>
origin ally</w>
con ten
Gesam theit</w>
min es</w>
p ace</w>
Har bour</w>
Op posi
Generalsekre tär</w>
UN O-
Al geria</w>
h o</w>
lo gic</w>
don ors</w>
ver zö
Liber ties</w>
17 .</w>
inequ alities</w>
ell ite</w>
ve aus</w>
erläu tert</w>
benu tzen</w>
besonder es</w>
disadvanta ged</w>
sil ence</w>
Op tionen</w>
xi de</w>
cul tiv
ti en</w>
ag er</w>
ru ft</w>
gemäß e</w>
J acqu
Thessalon ik
vertre te</w>
Zw ei</w>
Fle isch</w>
Ferrero- Waldner</w>
presiden tial</w>
monopo ly</w>
präz ise</w>
dev a
Co sta</w>
konkre ter</w>
ge- scale</w>
Privat sphäre</w>
c a.</w>
wachsen de</w>
G AS
transfer red</w>
Bo den
tig keits
detri ment</w>
e tzung</w>
Wort laut</w>
Verb ün
t ter</w>
Er neu
B 4-0
Bish er</w>
-B en
inev itably</w>
Schi ffen</w>
Cy pri
gerich tete</w>
prepar atory</w>
en abled</w>
compon ent</w>
stra ight</w>
Anmerk ung</w>
s le
wissen s
W erk
al d</w>
pl än
Vi enn
Nahrungs mittel</w>
ro utes</w>
v e-
dri ven</w>
gering er</w>
gra de</w>
C ohn
B lack</w>
appro ach
ti tle</w>
K riterium</w>
compar able</w>
a den
aus gestattet</w>
Herzego win
fin dings</w>
ass ungen</w>
Verstöß e</w>
R -Fraktion</w>
ein gebunden</w>
Parla ment
fizi erungs
Anrei z</w>
abzu stimmen</w>
bewe gt</w>
ear thqu
priv atis
fahr zeuge</w>
8 7</w>
quar ters</w>
lingu istic</w>
Eigent um</w>
sub s
inter n
dis abilities</w>
f in</w>
m uni
P akt</w>
be weist</w>
So wohl</w>
A kti
abzu schließen</w>
wettbewerbs fäh
Gemeinschaft sin
Jacqu es</w>
our ing</w>
pas sieren</w>
gesetz gebung</w>
Leh ne</w>
internation ally</w>
vol les</w>
inter ference</w>
Allgem eine</w>
Gesicht spunkt</w>
St ehende</w>
be vorzu
twi ce</w>
s l
Bed ingung</w>
an z
hin nehmen</w>
5 -
inno cent</w>
research ers</w>
lau b</w>
Slowen ien</w>
appel lieren</w>
poten tially</w>
T or
bi tion</w>
Erzeu gnissen</w>
her stellen</w>
ap p</w>
P ack</w>
Aktions programm</w>
Kon su
assess ing</w>
assess ed</w>
B angem
Cohn -Ben
gr ü
Mitglieds länder</w>
f at
Brut to
voc ational</w>
Straft aten</w>
posi tives</w>
6 4</w>
explo it</w>
basi eren</w>
des per
at ter
soci ally</w>
Mehrwert steuer
co al</w>
sch au
la den</w>
ar ma
er richten</w>
Nu klear
Pesti zi
defini tive</w>
sim pl
occ urr
bilater ale</w>
constitu ency</w>
assu red</w>
Einwanderungs politik</w>
w ished</w>
tar iff</w>
T EN
poli zei
Im ple
wi dri
objec tions</w>
Fra ktions
tan e
multi annual</w>
sch ön
hol ders</w>
Se e
c e-
min ds</w>
geh in
Wes ten</w>
Cohn-Ben dit</w>
EU- Bürger</w>
Nach teil</w>
Herb st</w>
re volution</w>
trav elling</w>
produ kten</w>
beruf liche</w>
Vertre terin</w>
stei gern</w>
In f
Zuwander ung</w>
ta pe</w>
Vienn a</w>
besch rieben</w>
verschär ft</w>
to m</w>
Evalu ierung</w>
fe ature</w>
Al z
auf gestellt</w>
b ün
ab schließen</w>
Verbraucher politik</w>
Rück sch
Thessalonik i</w>
Wiederauf nahme</w>
glau bt</w>
un um
Umwelt politik</w>
13 .</w>
re cip
princip al</w>
ben ch
Di esen</w>
Four thly</w>
hi elten</w>
um gehend</w>
enter prise</w>
in her
ge kürz
dar gestellt</w>
R ob
smo king</w>
r t</w>
Assoziierungs abkommen</w>
Com pu
Her z
character ised</w>
St rom
er rors</w>
b site</w>
camp s</w>
Bö ge</w>
7 6</w>
prac tically</w>
ob ject</w>
alo g</w>
Er be</w>
agi eren</w>
Integr ität</w>
susp ici
produc er</w>
läu fi
Einstimm igkeit</w>
ub </w>
ge widmet</w>
systemati cally</w>
u st
P N
c lon
vereinbar ten</w>
i de</w>
Besch luss
we ek
ar rest
EV P-
ges unden</w>
constra ints</w>
wer ken</w>
uneingeschrän kte</w>
ap plau
floo ds</w>
ak et</w>
Ein m
Mi granten</w>
estim ates</w>
Alz hei
Pil ot
gesund heits
Pflan zen
kon vention</w>
an gen</w>
cyc le</w>
off ic
abzu geben</w>
ar m</w>
Lat via</w>
bereit stellen</w>
adver se</w>
mittler weile</w>
Ab gesehen</w>
Kon go</w>
obstac le</w>
Bu ch
demand ed</w>
trans position</w>
automati cally</w>
Frei willi
forder ten</w>
inspec tions</w>
Kon servativen</w>
dest abil
Wort mel
Or gan</w>
über denken</w>
conc essions</w>
M ari
kn app</w>
an o</w>
ein setzt</w>
Produ zenten</w>
Gemeinschafts rechts</w>
Da y</w>
Rahmen richtlinie</w>
st ab</w>
ab sor
ir respective</w>
K örper
Bangem ann</w>
co inci
K il
S har
refer ences</w>
Den ken</w>
rah men
sein erzeit</w>
adjust ment</w>
organi zation</w>
ber ühr
Con go</w>
vor be
erzeu gung</w>
Rechtsp rechung</w>
pen sion
stric ter</w>
ermäch tigungen</w>
ent s
Herzego vina</w>
Arbeits lo
ad her
Demokrati schen</w>
Sicher stellung</w>
comp lied</w>
min ent</w>
fäl sch
vorsch rift</w>
in ated</w>
Meinungs freiheit</w>
Isra els</w>
sh oul
Per spektiven</w>
ei ved</w>
own- initiative</w>
haf ter</w>
an führen</w>
Überein kunft</w>
Russ lands</w>
f rank
Kür zung</w>
Be wirtschaftung</w>
d ung
ref us
b ases</w>
harmon ise</w>
wholehear tedly</w>
N um
r ating</w>
bean tragen</w>
Überschw emm
sch wäch
ke wise</w>
v ise</w>
Sch ü
Sol ange</w>
Berat ung</w>
ständi ger</w>
tektion ismus</w>
Mad eira</w>
ge äußer
öpf en</w>
r hetor
Ber lus
faci lity</w>
wa i
wil lig</w>
Finanz rahmen</w>
st unde</w>
Kur dish</w>
isl ands</w>
civili ans</w>
guil ty</w>
G ö
erst mals</w>
A mon
plan et</w>
comit ology</w>
Unterneh mer</w>
Verk auf</w>
schedul ed</w>
0 er</w>
Ih res</w>
g no
b l
ak a
K urs</w>
de ck
Zur ück
a ke</w>
Gesetz geber</w>
3 1.</w>
zu künftig</w>
Par agrap
of es</w>
6 9</w>
Mex iko</w>
gebühr en</w>
Best ände</w>
è s</w>
h te</w>
7 00</w>
Woh ler
pol nischen</w>
ges onder
R om</w>
ban k
gegensei tig</w>
be gan
brauch s</w>
orient ation</w>
frü h</w>
Dar auf</w>
gi ge</w>
be faßt</w>
war m</w>
Vor gaben</w>
Wäl der</w>
S ci
high- quality</w>
Investitions bank</w>
deci ding</w>
ursprün gliche</w>
if ying</w>
to wn</w>
lar ge-scale</w>
Finanz märkte</w>
ater ie</w>
judi ci
kur bel
M ei
resp o</w>
in struc
Be träge</w>
Emis sion
C respo</w>
Co de</w>
fru str
flexib el</w>
kre di
critic isms</w>
j et
12 .</w>
verteidi gt</w>
pil lars</w>
ol l</w>
ma il</w>
Chr isten</w>
Sat ellit
er langen</w>
ond s
is s</w>
estim ate</w>
clo sing</w>
Er reichen</w>
Guine a</w>
aus gelöst</w>
Kon solidierung</w>
foot ball</w>
in appropriate</w>
en em
bra chte</w>
W ein</w>
Vor sorge
T em
stopp ed</w>
sozi al</w>
or gt</w>
pro -
den oun
ar ticles</w>
Jo sé</w>
Anla ß</w>
Verhäl tnis
schle chten</w>
inn eren</w>
ges orgt</w>
thorough ly</w>
rec orded</w>
Herzegowin a</w>
fest gehalten</w>
En des</w>
effizi enter
tatsäch liche</w>
sa al</w>
behin dern</w>
vis ions</w>
survi val</w>
8 1</w>
exper t</w>
gest ü
L ul
verbin dlich</w>
8 2</w>
appoin ting</w>
b acks</w>
kenn t</w>
Proz ent
pa ir</w>
th ens</w>
ost europäischen</w>
k el</w>
zurück kehren</w>
k ette</w>
tre mend
t elling</w>
ä ter</w>
pharmaceu tical</w>
arab ischen</w>
sou verän
tru g</w>
protection ism</w>
Anti -
mot or
veran st
drafts man</w>
Konjun ktur
R üst
k is</w>
reti rement</w>
Wün sche</w>
wel le</w>
Vertra g
ra ce</w>
ab hängen</w>
ger icht
charac ter</w>
R enten</w>
o gen</w>
be fin
anspru chs
gel ernt</w>
beru hi
ern ity</w>
g ases</w>
critic ised</w>
Pre isen</w>
under stan
Alger ien</w>
poli es</w>
Wettbewerbs politik</w>
ern sten</w>
dead lines</w>
medic inal</w>
Augen merk</w>
adap tation</w>
chann els</w>
sek tor
an sonsten</w>
Defiz it</w>
nach teili
be ach
Konsult ationen</w>
Fe u
weis ungen</w>
unterschied licher</w>
Verfassungs vertrag</w>
appreci ation</w>
regis tered</w>
remain ed</w>
coordin ating</w>
R ehn</w>
GM O</w>
sch mer
ck ets</w>
gi r
hr en</w>
Erkenn tnisse</w>
Mc Car
ru män
benachteili gten</w>
streng ere</w>
vorsch lags</w>
nah men
Friedens prozess</w>
8 8</w>
nor th</w>
ph ra
Men gen</w>
gest än
dis sem
li t</w>
vor sehen</w>
Bewer ber
er innen</w>
a qu
app alling</w>
ban an
gle it
wor ried</w>
gewün sch
pass ing</w>
s ah</w>
ent schie
sensib len</w>
verbin den</w>
subjec ted</w>
comp li
discrimin atory</w>
Bei de</w>
su res</w>
reit en</w>
Haushalts linie</w>
Substan zen</w>
Leit ung</w>
ehemali ge</w>
nachhal tig</w>
zu ständige</w>
conven i
Bem ü
occup ied</w>
ret ten</w>
ak is</w>
WW U</w>
thir dly</w>
U -
G AT
W ie
in toler
Gedan ke</w>
b and</w>
Bemü hen</w>
har dt</w>
ad or</w>
V el
in direct</w>
Er mitt
for war
Ein wohner</w>
refus al</w>
Straßen verkehr</w>
ell a</w>
M äd
vor gestellt</w>
moder ne</w>
verli ehen</w>
N ation</w>
Arbeitslo sen
engagi ert</w>
in- depth</w>
H änden</w>
mor atorium</w>
zu zustimmen</w>
Bevölkerungs gruppen</w>
offenkun dig</w>
ver le
Klär ung</w>
Ein gliederung</w>
lan des</w>
k op
Thir d</w>
a ge
demonstr ation</w>
kurzfris tig</w>
gra ve</w>
zentr en</w>
Lob by
Be frei
schreck lichen</w>
hin reich
h unger</w>
Un fälle</w>
Ab lauf</w>
N iel
fer tigung</w>
Vermitt lung</w>
Weiter bildung</w>
Au tor
ä r</w>
formu lieren</w>
itär en</w>
Jer usalem</w>
arran gement</w>
stimul ate</w>
fein dlichkeit</w>
C at
Sozial fonds</w>
Temp o</w>
we ge</w>
relie f</w>
auf richtig</w>
schie ben</w>
mi d
aus reichen</w>
persec ution</w>
b lat
we ichen</w>
L IF
ti a</w>
re viewed</w>
diplom atischen</w>
del icate</w>
h one</w>
medizin ische</w>
inci dents</w>
bed ür
Roman ian</w>
Ge wässern</w>
verk ün
bio fuels</w>
Millenn ium
it y-
di n</w>
he bt</w>
aband on</w>
öl le</w>
Wo g
gerin ge</w>
Bedau er
bro adly</w>
veran lassen</w>
Haushalts ausschuss</w>
Fuß b
S m
he f
CF SP</w>
de fi
ver letz
Angol a</w>
sy ner
zeichne ten</w>
Zweit en</w>
divi de</w>
form ally</w>
ing er</w>
Lebens bedingungen</w>
N ul
8 00</w>
kon solidi
A O</w>
vor haben</w>
Fir men</w>
ultim ate</w>
Wahl kreis</w>
v ali
Chin as</w>
ha bil
se at</w>
harmon is
gewäh lte</w>
qualifizi erte</w>
7 2</w>
Berlus coni</w>
pun ishment</w>
ma kers</w>
H is
Sta d
c en
Pro tektionismus</w>
Toler anz</w>
gener ous</w>
Feder ation</w>
angenommen e</w>
c tic</w>
b onds</w>
corpor ate</w>
mo ther</w>
geleis tete</w>
ser klärung</w>
über wie
Sch on</w>
top ical</w>
hin nehmbar</w>
Änderungs vorschläge</w>
vor sichtig</w>
gesch lech
Konvergen z
Ins gesamt</w>
tr e</w>
consci ence</w>
wes ens</w>
sol ving</w>
es -
län en</w>
über flüssi
produ zieren</w>
top ics</w>
hand ed</w>
Aktionsp lans</w>
g l
sin n</w>
moral ische</w>
arch it
un it</w>
ges tiegen</w>
mö ge</w>
Reser ve</w>
nach kommen</w>
an dem</w>
ut lich</w>
less on</w>
un lau
Verfas ser
n it
mat ure</w>
recht zu
von einander</w>
on ing</w>
spec ulation</w>
audiovis ual</w>
contrib utes</w>
da mer</w>
Zus ätz
ret ary</w>
contradic tion</w>
Rechnungsh ofs</w>
30 .</w>
Ander e</w>
Er öffnung</w>
dem ie</w>
schö n</w>
so genannte</w>
Rich ter</w>
gra d</w>
aus machen</w>
Versch lech
vertrau t</w>
CO2- Emissionen</w>
er sucht</w>
ter ror</w>
st eckt</w>
n on
Informations -</w>
Drit ten</w>
N eben
H ü
fac es</w>
Rindfle isch</w>
re turned</w>
B yr
tun a</w>
Inf lation</w>
vor gelegte</w>
Transp or
korrigi eren</w>
Gö te
dec ade</w>
0 5</w>
viel falt</w>
kn app
arrest ed</w>
Befür chtungen</w>
In stan
and au
Christi ans</w>
under p
promis ing</w>
com position</w>
í n</w>
bewe gung</w>
sel ten</w>
25 .</w>
ide ological</w>
to wns</w>
sicher er</w>
realis ed</w>
Techn ik</w>
p lic
en gen</w>
ens es</w>
dau ert</w>
Gro ßen</w>
C auc
b un
gesch enkt</w>
Mitgliedsta ats</w>
fi able</w>
Stu fe</w>
getö tet</w>
t am
äl teren</w>
ad ed</w>
Finanzi er
wor auf</w>
Solidaritäts fonds</w>
c ommission
OSZ E</w>
he avi
Göte bor
Joh n</w>
R ats</w>
Besonder heiten</w>
Ak tu
immen se</w>
ar ises</w>
An hän
vic tory</w>
ci liation</w>
tr ends</w>
Schlü ssel</w>
Gon zá
y e</w>
gesetz </w>
with drawn</w>
Sow jet
Welt bank</w>
Wog au</w>
Ein igkeit</w>
O der</w>
ME DA</w>
Grund satzes</w>
bezo gene</w>
interpre ted</w>
atmo sphere</w>
ob taining</w>
ran ken</w>
ob liegt</w>
den ted</w>
gen tin
schrif tliche</w>
gro und
Fischereis ektor</w>
handel te</w>
ul f</w>
benefici aries</w>
multination alen</w>
ent es</w>
erk ennt</w>
Unterneh mer
Fre und</w>
Sh ould</w>
du al</w>
exac erb
üh ne</w>
Eco fin</w>
Ak zep
gew inn
F alls</w>
poin ting</w>
ter er</w>
Zuständi gkeits
auf hören</w>
ta ine</w>
tur ns</w>
h em
remin ded</w>
address es</w>
Reg istri
ver trags</w>
Best ä
unter nimmt</w>
verk aufen</w>
allgem einem</w>
alar ming</w>
Be grenzung</w>
A ga
clar ified</w>
sat ellite</w>
c ells</w>
Arbeits programm</w>
bei der</w>
grundle gend</w>
lin ge</w>
Einm ischung</w>
ga ining</w>
spartn er
Funktion sweise</w>
verk auft</w>
beg ri
exclu de</w>
gül tig</w>
zeich n
to ck</w>
griech ische</w>
demo graf
wä cht</w>
Them as</w>
Er schein
schü sse</w>
Ein sparungen</w>
F es
m outh</w>
sub -
un prece
Bl ut
gestri gen</w>
Qu elle</w>
an gehört</w>
Qu ellen</w>
every day</w>
Invest oren</w>
hol ds</w>
m ass
Handels politik</w>
Asi an</w>
re e</w>
Hindern is</w>
gem el
avoi ding</w>
allmäh lich</w>
gefähr licher</w>
ves tock</w>
natür liche</w>
di men
Leist ungs
vers prochen</w>
Wachst ums</w>
berat enden</w>
Ziel vor
diff er</w>
bekomm t</w>
ari ous</w>
näch st</w>
Auff assungen</w>
ab schließ
norm ally</w>
remark able</w>
prior iti
j an</w>
sec toral</w>
dau er</w>
emphas ises</w>
Bestre bungen</w>
i ze</w>
S eine</w>
schlech ter</w>
Sy ner
atta ch</w>
te ure</w>
Enttäu schung</w>
Ale x
Er halt</w>
dis tan
H is</w>
in comes</w>
stre sses</w>
si ed
erneuer barer</w>
Gemein den</w>
p ru
enn bar</w>
Ge geben
Verbrauchersch utz
über nimmt</w>
I P
Vor mittag</w>
entz ieht</w>
re mark</w>
Unterneh mens</w>
on n
gest anden</w>
in o
vis ing</w>
self- employed</w>
am i</w>
Nei ghbour
e e</w>
indic ates</w>
gelie fert</w>
illeg aler</w>
Kontin ents</w>
transpar enter</w>
do ors</w>
Zus age</w>
a det</w>
Tar if
Schu le</w>
z eln</w>
govern ed</w>
integri eren</w>
Mal m
aus gehend</w>
tes ted</w>
pesti cides</w>
Alkoh ol
col on
auszu arbeiten</w>
Vor beu
gla des
spar teien</w>
präsen tieren</w>
G N
an geführt</w>
kämpf t</w>
be deut
zu gs
befu gnisse</w>
differ ently</w>
21 st</w>
an cies</w>
la ss</w>
unprece dented</w>
pre judi
c -
ange passt</w>
gu tem</w>
persu ade</w>
S ier
el f</w>
Democr at</w>
w unsch</w>
Überschwemm ungen</w>
Dienst es</w>
Ver anst
k tik
any where</w>
Ge fähr
ens able</w>
verbreit et</w>
Be en
hervorzu heben</w>
Ban glades
auf gerufen</w>
auf rechtzu
invest ing</w>
an ks</w>
our -
for d</w>
g ut
neh mer
14 .</w>
koordin iert</w>
S L</w>
Mitarbeit ern</w>
pf licht</w>
widerspie geln</w>
proje kt</w>
Kom pon
Reg ul
facilit ating</w>
schwer er</w>
mi ddle</w>
Ein leitung</w>
integri ert</w>
arti fi
cons ists</w>
gener ated</w>
Er de</w>
Ein erseits</w>
besser es</w>
w- how</w>
as sen
teil te</w>
under ing</w>
Byr ne</w>
teil ten</w>
tr aum</w>
pra ise</w>
0 2</w>
W </w>
th ou
Luftfahr t
St ur
begrenz ten</w>
lin er</w>
Stabil isierung</w>
ac qui
P hil
sustain ed</w>
russ ische</w>
wi es</w>
person en</w>
berich tet</w>
ent al</w>
i ehen</w>
Beitritts länder</w>
Telekommunik ations
aufrechtzu erhalten</w>
Gonzá lez</w>
Eurat om</w>
K unden</w>
vi erung</w>
inst all
ro ot</w>
Be gleit
du s</w>
Mon it
prerequis ite</w>
vorzu bereiten</w>
ra s</w>
in stability</w>
qu ick</w>
ung laub
comple x
ad ding</w>
trans lation</w>
lei det</w>
ec ks</w>
Gesundheits versorgung</w>
auf greifen</w>
n ör
Sah ara</w>
gene tic</w>
er eig
Gen der</w>
stri kes</w>
Beru f</w>
Rechts vorschrift</w>
Mäd chen</w>
f tung</w>
prohi b
Malm ström</w>
S ever
li vestock</w>
öpf t</w>
wäch st</w>
Auf lagen</w>
lan der</w>
mentari ans</w>
rein forced</w>
Som alia</w>
stü tzt</w>
N ic
Democ racy</w>
Been digung</w>
con fin
fo ods</w>
ak tiver</w>
war tet</w>
concep ts</w>
wa ke</w>
leist ungs
stell ten</w>
equi vo
inci dent</w>
ig ungs
indisp ensable</w>
wah l
Univers itäten</w>
explo ited</w>
schein end</w>
inf ec
pat ents</w>
enjo yed</w>
zivil en</w>
h ion</w>
fas hion</w>
Re t
B ün
Kl ausel</w>
re loc
B our
zu fügen</w>
6 -
isch enz
mono polies</w>
Rück über
ris en</w>
Territori um</w>
8 3</w>
fil l</w>
ch ron
bie ter</w>
heavi ly</w>
komplizi erten</w>
isol ation</w>
Da ß</w>
Akte uren</w>
re verse</w>
ener gie
jah re
cre ative</w>
füh le</w>
geno cide</w>
Geltungs bereich</w>
Resol u
7 3</w>
bedeu tend</w>
irgend einer</w>
fo ster</w>
ü gen</w>
mis sible</w>
N ep
pati ent</w>
berühr t</w>
threaten ing</w>
geben den</w>
engagi eren</w>
ersch üt
f erung</w>
eng l
E E
zer o</w>
S up
H ague</w>
ber au
Throu gh</w>
se ment</w>
abol ished</w>
ver mittelt</w>
off ences</w>
K ün
empfoh len</w>
acc us
end t</w>
y iel
geb ro
N apo
xen ophobia</w>
exp enses</w>
K en
IN I</w>
Per spec
integr al</w>
problemati sch</w>
cle an
Um stellung</w>
Darle hen</w>
debat tieren</w>
foot ing</w>
wor t</w>
Be zeichnung</w>
ver nehmen</w>
own ers</w>
verantwor tung</w>
ver träge</w>
lic ences</w>
Elek tri
zu kommt</w>
PHAR E</w>
kom bin
erreich ten</w>
GAS P</w>
Schattenberichterstat tern</w>
attemp ting</w>
enthusias m</w>
wh enever</w>
Ti bet
Amster damer</w>
Religions freiheit</w>
thin ks</w>
7 4</w>
avail ability</w>
ass embly</w>
Stra fen</w>
Är z
ge faßt</w>
bru t
d ged</w>
Auseinander setzung</w>
strukturel len</w>
mis sed</w>
Arznei mitteln</w>
Ober grenze</w>
it als</w>
ein gebrachten</w>
don or</w>
Autonom ie</w>
an lagen</w>
remo ving</w>
Sp itz
Co x</w>
schwei gen</w>
u ts</w>
witn essed</w>
Con gress</w>
TAC IS</w>
Fron t</w>
offizi elle</w>
o eu
Presse freiheit</w>
Ukra in
einschlä gigen</w>
Politik bereiche</w>
wonder ful</w>
posi tiver</w>
bel s</w>
quanti ty</w>
dispar ities</w>
Beru f
voran kommen</w>
oeu v
interven tions</w>
re gen</w>
empha size</w>
illeg ally</w>
Verschlech terung</w>
Ministerprä sidenten</w>
Ve terin
einzi gar
T aus
ASEA N</w>
Mehrwert steuer</w>
Be züglich</w>
ber ichte</w>
Schot tland</w>
dis gra
Wo chen
D G</w>
nu tri
letz tes</w>
Se vil
wär tigen</w>
befür chten</w>
belie ved</w>
än derung</w>
Est land</w>
ensu res</w>
Fisch bestände</w>
In spe
la ys</w>
Ter min</w>
re mit</w>
Ver tief
F at
un like</w>
inform ellen</w>
e ase</w>
man oeuv
low est</w>
inter institutionellen</w>
Mitglieds ländern</w>
countr y
inev itable</w>
begleit et</w>
einzu räumen</w>
Hauptz iel</w>
fli ght</w>
techn i
ge zahlt</w>
ch ie
frü h
our e</w>
weiter gehen</w>
antwor tung</w>
cau ght</w>
In halte</w>
Zwei fel
ut ors</w>
stan des</w>
t ung
beschäf tigungs
isol ated</w>
Sar ko
ander s
war s</w>
Olymp ic</w>
O ost
Kol um
men den</w>
democ racies</w>
opp on
sto red</w>
wettbewerbs fähig</w>
satis fy</w>
ir responsible</w>
De tail</w>
relation ships</w>
he utzutage</w>
vor bereiten</w>
Extre mis
ver tra
Präsidentschaf ts
lich ere</w>
u red</w>
descri be</w>
Vertief ung</w>
A part</w>
Auf sicht</w>
gesch ätz
prece dent</w>
con vic
bi ome
ak ts</w>
ko oper
konstitution elle</w>
prinzi pien</w>
Europä ern</w>
6 -00
Rom a-
A ri
all y-
T rau
Mo sco
beizu behalten</w>
en a</w>
audi t</w>
1 00
um b
dat ab
recogn ising</w>
Erneu erung</w>
ermu ti
W HO</w>
on line</w>
2 ,
IM F</w>
IN D</w>
combin ation</w>
dre am</w>
C hil
er ledi
sch war
rei bung</w>
di gten</w>
stau sch
M ah
integri erte</w>
Is lands</w>
ausge de
fre e
mo ves</w>
er end</w>
Abän derungsan
ambigu ous</w>
Venezu ela</w>
critic ise</w>
emp ty</w>
Ara fat</w>
Erleich terung</w>
lan ung</w>
Auf teilung</w>
ab el</w>
work force</w>
ste el</w>
T ha
Sie g</w>
ar ance</w>
ein halb</w>
Neighbour hood</w>
har ma
Mil itä
Ost se
stabil en</w>
lo ser</w>
Auf klärung</w>
lic ence</w>
Verlu ste</w>
mo dest</w>
Sozial ver
18 .</w>
entreprene ur
win d</w>
üb lich</w>
re ak
gi ene</w>
len dung</w>
mid- term</w>
gh er</w>
Niel son</w>
wen de</w>
Artik els</w>
16 .</w>
kenn tnis</w>
Glück wunsch</w>
ic ed</w>
dem nächst</w>
integr ating</w>
wor th
bis weilen</w>
Mul der</w>
pro found</w>
Indones ia</w>
nu klear
gen ous</w>
h ten</w>
re ale</w>
H ände</w>
inter -
Cauc asus</w>
mu tz
e z</w>
Fremden feindlichkeit</w>
sk ep
mess ages</w>
so hne</w>
R und
Den k
Be antwortung</w>
Gesundheits wesen</w>
Auf trags
il and</w>
fea sible</w>
Roth ley</w>
bedür fen</w>
entz iehen</w>
aspir ations</w>
ear marked</w>
no -
qu ellen</w>
claim ed</w>
fan gs</w>
pi peline</w>
troff ene</w>
indire kt</w>
Au tos</w>
an o
Gan zen</w>
IL O</w>
Sec retary</w>
gekürz t</w>
Versch mutzung</w>
T ests</w>
ges unde</w>
condem nation</w>
Elektri z
ra ss
be merken</w>
y right</w>
Frei handels
konstruk tiv</w>
Bon ino</w>
eh </w>
à </w>
men tierung</w>
Ereign is</w>
gewal tige</w>
ban ana</w>
Davi d</w>
g lichkeit</w>
frank ly</w>
limit ing</w>
Fon taine</w>
aufge zeigt</w>
re alen</w>
Barro t</w>
sch aden</w>
gesell schaftliche</w>
drin gende</w>
promot es</w>
inter oper
üb lichen</w>
gui ded</w>
poor er</w>
Let tland</w>
Terrorismus bekämpfung</w>
partn ern</w>
Tren nung</w>
industri ellen</w>
A 4-00
Kon g</w>
Götebor g</w>
Föder ation</w>
unabding bar</w>
jem als</w>
Con c
Finanz -</w>
k am
aff air</w>
H at</w>
Schwer punkte</w>
multin ational</w>
abol ish</w>
a zi
du ly</w>
dero g
verän derten</w>
H ong</w>
un equivo
Sch we
weit et</w>
j ing</w>
auf gaben</w>
jah res
ens werte</w>
B a
qualit ative</w>
grati tude</w>
bur dens</w>
Ausgleich s
pat ri
so ft</w>
besch ä
advan ces</w>
confir ms</w>
Besch lusses</w>
er kt</w>
regis tri
Automobil industrie</w>
tr at</w>
kno wled
men gen</w>
I W
Wachstumsp akt</w>
be achtet</w>
kommerzi ellen</w>
Aus maß
emer ge</w>
Mitentscheidungs verfahren</w>
Daten schutz</w>
St ar
regul ating</w>
philosoph y</w>
Ko finanzierung</w>
de hnen</w>
er stes</w>
Freihandel sabkommen</w>
hin ausgehen</w>
Bei hilfe</w>
C 6-0
Con ciliation</w>
Mand elson</w>
Tele f
jun ction</w>
Demokrati en</w>
begrenz te</w>
pla yer</w>
j unger</w>
Qu ite</w>
sprü ch
ver setzen</w>
aller erst</w>
Musli m</w>
Wettbewerbs verzerr
me ist</w>
Wohler gehen</w>
Gesch windi
manufac turing</w>
g lo
D ep
sch end</w>
public ly</w>
up hold</w>
be am
ologi en</w>
Bei jing</w>
gleich ung</w>
Heim at</w>
hoch rangi
gesch ickt</w>
ek e
p iel
Glob al</w>
in equality</w>
si mul
s ly</w>
sec uring</w>
en force</w>
c attle</w>
bli cken</w>
Nach richt</w>
fru cht
stri ve</w>
Op tim
pun ished</w>
E l</w>
Dien sten</w>
k ä
ordnungs gemäße</w>
Sp itze</w>
civil isation</w>
E ta
vor ausgesetzt</w>
Tran sit
multination als</w>
Do ssier</w>
abor tion</w>
D ere
Angehö rigen</w>
har te</w>
Hung er</w>
dre w</w>
ma ybe</w>
re sts</w>
just ment</w>
un vermei
ürz t</w>
hand led</w>
sch lag</w>
ener gies</w>
A S</w>
hör e</w>
Meinungs verschieden
in directly</w>
Haushalts verfahren</w>
r are</w>
R ü
dau ern</w>
dis placed</w>
war rant</w>
Era smus</w>
B ele
Ar gentin
sha me</w>
verfüg bar</w>
Plenar saal</w>
ab schätzung</w>
Konkurr enz</w>
problemati c</w>
ange gangen</w>
Bere ch
ger er</w>
gerech net</w>
bro ken</w>
Vor bild</w>
work place</w>
schmer z
Vol lendung</w>
ri tik
I vo
europ as</w>
foc uses</w>
ließ t</w>
Völker mor
Vis a</w>
ga ther
stand s
ausge drückt</w>
Red ner
ra c</w>
Akzep tan
prof it
bere ichs</w>
berech tigte</w>
Pe ace</w>
klein eren</w>
zusammen gearbeitet</w>
l end</w>
trieben en</w>
parlia mentarians</w>
Außen beziehungen</w>
defi ci
conclu ding</w>
Administr ation</w>
announ cement</w>
wert volle</w>
unan nehmbar</w>
empfeh le</w>
poten ti
n esty</w>
E ach</w>
gewal t
sac rif
Gegeben heiten</w>
S W
ar tigen</w>
vor bereit
le ben
gest ehen</w>
aus gesch
Impul se</w>
kap ital</w>
aushal tsp
organi zed</w>
Un til</w>
Aga inst</w>
trans national</w>
rati fizieren</w>
um ul
Red nern</w>
An d
So weit</w>
fol gendes</w>
bi ological</w>
accoun table</w>
La w</w>
ma che</w>
re ll</w>
Sm all</w>
ssi ers</w>
nied rigen</w>
Materi al</w>
Th anks</w>
on ment</w>
survi ve</w>
är m</w>
gesch äf
E T
ge ziel
Sozial -</w>
Richtlinien vorschlag</w>
dela yed</w>
quanti tative</w>
ed t</w>
war ming</w>
Viel mehr</w>
plötz lich</w>
th ei
An gel
li gkeit</w>
Grenz werte</w>
vor gebracht</w>
spec ul
Re icht
Inter pre
Urhe ber
Vel zen</w>
trag ischen</w>
dis advantage</w>
C ô
ab solu
inves ted</w>
f lich</w>
eligi ble</w>
UC LAF</w>
Au to
expres sly</w>
ell or</w>
Si ed
begr enzen</w>
ör tlichen</w>
zer b
Sarko zy</w>
Ver bo
tra ce
aim ing</w>
Ro bert</w>
b ran
requ iring</w>
ep i
itä t
lin dustrie</w>
ari b
Cre ev
äl tere</w>
St reichung</w>
iti gkeiten</w>
macro -
ima gin
qu o</w>
sel ection</w>
Europar at</w>
ent lich</w>
aufer legt</w>
Finanz dienstleistungen</w>
aufge worfen</w>
schlimm sten</w>
block iert</w>
bo di
ken ne</w>
Mc Creev
wahr e</w>
Aussch uss
or i</w>
speci fied</w>
An zeichen</w>
Klein -</w>
dedic ated</w>
N either</w>
haf tet</w>
zu vers
Fre edoms</w>
f ault</w>
verm utlich</w>
verk nüpft</w>
erzeu gt</w>
Ex port</w>
Ver hütung</w>
portugi esische</w>
ent schuldigen</w>
Ev ans</w>
Ges tern</w>
bedeu ten
äl ter</w>
fle ets</w>
Off en
appe arance</w>
peripher al</w>
Fra gestell
ge f
H ong
schw ung</w>
w is
ex ert</w>
verabschie deten</w>
Vorsitz es</w>
Oost lander</w>
br icht</w>
tremend ous</w>
mi x</w>
prefer red</w>
eh n
analy sieren</w>
postpon ed</w>
kehr ungen</w>
Hong kon
Vermittlungs verfahren</w>
Gen fer</w>
horizon t
fe els</w>
ment are</w>
back ed</w>
gewöhn lich</w>
ne in</w>
Besch lüssen</w>
sti tut</w>
Tschech ischen</w>
pla cement</w>
medizin ischen</w>
verwei gert</w>
tes tens</w>
co st-
privatis ation</w>
irgend wo</w>
weit em</w>
urop a</w>
sign als</w>
Mehr heits
pen ding</w>
201 4</w>
f ließen</w>
Gesetz es</w>
zu gang</w>
it ary</w>
re si
k tu
Gen ug
Genug tu
Genugtu ung</w>
Finanz minister</w>
gin gen</w>
sinstru ment</w>
Einkommen s
7 9</w>
transpar ente</w>
L e</w>
Hab en</w>
et ten</w>
übri g</w>
doc tors</w>
c eas
elim ination</w>
aband oned</w>
unter zeichnen</w>
M ess
da iry</w>
encoura gement</w>
re productive</w>
zerstör en</w>
drin king</w>
Initiativ bericht</w>
ermu tigt</w>
v ague</w>
r uns</w>
Nach teile</w>
h at
Gesam th
main streaming</w>
quanti ties</w>
b lichen</w>
dopp elt</w>
in put</w>
sch rift</w>
P fle
for th</w>
Akzeptan z</w>
fa ster</w>
Luft verkehrs
Luft verkehr</w>
Dring lichkeits
Ver pack
schnellst möglich</w>
Sch reyer</w>
enor m</w>
al erweise</w>
M y
g are
pragmati c</w>
er wer
radio active</w>
Privati sierung</w>
ehr endt</w>
ment ing</w>
Ein bindung</w>
sicht bar</w>
beträch tlichen</w>
ir gen
wi de-
verbin dlichen</w>
McCreev y</w>
at em
s mug
er mor
Ver such
Paragrap h</w>
Del ors</w>
Ivo ire</w>
än ge</w>
per form</w>
M om
Mü he</w>
Merk el</w>
lie ß</w>
att form</w>
bla ck
C ub
pre ference</w>
eck sil
widerspie gelt</w>
recht licher</w>
Bedauer licherweise</w>
Ein fuhr</w>
Auf stellung</w>
Verfasser in</w>
f ications</w>
ein leiten</w>
secon dary</w>
profi le</w>
Cô te</w>
- Abkommen</w>
gesetz te</w>
recogni ze</w>
weak nesses</w>
counterf eit
on er</w>
Go als</w>
Gleich berechtigung</w>
A dre
Bestre ben</w>
Ar ticles</w>
recht mäßig</w>
accep ts</w>
betra chte</w>
verbesser te</w>
Car di
ab ri
gewach sen</w>
stär kt</w>
ut ation</w>
O b</w>
ir a</w>
lu c
overwhel ming</w>
public ation</w>
verhäl tnisse</w>
oper ation
tik a</w>
Rel ations</w>
posi tively</w>
Analy sen</w>
J ur
Umwelt -</w>
stre bt</w>
determin ing</w>
s wit
Fortsch ritten</w>
Dat um</w>
beit ritts
t aten</w>
vorsitz enden</w>
Cardi ff</w>
aw ah
identi fication</w>
viol ated</w>
radi o</w>
conven tional</w>
notic ed</w>
Mi kro
Ad justment</w>
C -
Handel sabkommen</w>
[...]
